#pragma once

#ifdef __has_attribute
#define HAVE_ATTRIBUTE(x) __has_attribute(x)
#else
#define HAVE_ATTRIBUTE(x) 0
#endif
#if HAVE_ATTRIBUTE(aligned) || (defined(__GNUC__) && !defined(__clang__))
#define DATA_ALIGN_ATTRIBUTE __attribute__((aligned(4)))
#else
#define DATA_ALIGN_ATTRIBUTE
#endif

// automatically configure network
#define TF_NUM_INPUTS 64
#define TF_NUM_OUTPUTS 3
#define TF_NUM_OPS 4

/**
 * Call this function to register the ops
 * that have been detected
 */
template<class TF>
void registerNetworkOps(TF& nn) {
    nn.resolver.AddReshape();
    nn.resolver.AddConv2D();
    nn.resolver.AddSoftmax();
    nn.resolver.AddFullyConnected();
    
}

// model data
const unsigned char tfModel[28408] DATA_ALIGN_ATTRIBUTE = { 0x1c, 0x00, 0x00, 0x00, 0x54, 0x46, 0x4c, 0x33, 0x14, 0x00, 0x20, 0x00, 0x1c, 0x00, 0x18, 0x00, 0x14, 0x00, 0x10, 0x00, 0x0c, 0x00, 0x00, 0x00, 0x08, 0x00, 0x04, 0x00, 0x14, 0x00, 0x00, 0x00, 0x1c, 0x00, 0x00, 0x00, 0x80, 0x00, 0x00, 0x00, 0xd8, 0x00, 0x00, 0x00, 0x40, 0x66, 0x00, 0x00, 0x50, 0x66, 0x00, 0x00, 0x74, 0x6e, 0x00, 0x00, 0x03, 0x00, 0x00, 0x00, 0x01, 0x00, 0x00, 0x00, 0x04, 0x00, 0x00, 0x00, 0xae, 0x98, 0xff, 0xff, 0x0c, 0x00, 0x00, 0x00, 0x1c, 0x00, 0x00, 0x00, 0x38, 0x00, 0x00, 0x00, 0x0f, 0x00, 0x00, 0x00, 0x73, 0x65, 0x72, 0x76, 0x69, 0x6e, 0x67, 0x5f, 0x64, 0x65, 0x66, 0x61, 0x75, 0x6c, 0x74, 0x00, 0x01, 0x00, 0x00, 0x00, 0x04, 0x00, 0x00, 0x00, 0x9c, 0xff, 0xff, 0xff, 0x0f, 0x00, 0x00, 0x00, 0x04, 0x00, 0x00, 0x00, 0x07, 0x00, 0x00, 0x00, 0x64, 0x65, 0x6e, 0x73, 0x65, 0x5f, 0x31, 0x00, 0x01, 0x00, 0x00, 0x00, 0x04, 0x00, 0x00, 0x00, 0x9e, 0x99, 0xff, 0xff, 0x04, 0x00, 0x00, 0x00, 0x07, 0x00, 0x00, 0x00, 0x69, 0x6e, 0x70, 0x75, 0x74, 0x5f, 0x31, 0x00, 0x02, 0x00, 0x00, 0x00, 0x34, 0x00, 0x00, 0x00, 0x04, 0x00, 0x00, 0x00, 0xdc, 0xff, 0xff, 0xff, 0x12, 0x00, 0x00, 0x00, 0x04, 0x00, 0x00, 0x00, 0x13, 0x00, 0x00, 0x00, 0x43, 0x4f, 0x4e, 0x56, 0x45, 0x52, 0x53, 0x49, 0x4f, 0x4e, 0x5f, 0x4d, 0x45, 0x54, 0x41, 0x44, 0x41, 0x54, 0x41, 0x00, 0x08, 0x00, 0x0c, 0x00, 0x08, 0x00, 0x04, 0x00, 0x08, 0x00, 0x00, 0x00, 0x11, 0x00, 0x00, 0x00, 0x04, 0x00, 0x00, 0x00, 0x13, 0x00, 0x00, 0x00, 0x6d, 0x69, 0x6e, 0x5f, 0x72, 0x75, 0x6e, 0x74, 0x69, 0x6d, 0x65, 0x5f, 0x76, 0x65, 0x72, 0x73, 0x69, 0x6f, 0x6e, 0x00, 0x13, 0x00, 0x00, 0x00, 0x64, 0x65, 0x00, 0x00, 0x5c, 0x65, 0x00, 0x00, 0xcc, 0x64, 0x00, 0x00, 0x3c, 0x64, 0x00, 0x00, 0x2c, 0x62, 0x00, 0x00, 0x1c, 0x22, 0x00, 0x00, 0xcc, 0x21, 0x00, 0x00, 0xb0, 0x21, 0x00, 0x00, 0x98, 0x21, 0x00, 0x00, 0x88, 0x01, 0x00, 0x00, 0xb8, 0x00, 0x00, 0x00, 0xb0, 0x00, 0x00, 0x00, 0xa8, 0x00, 0x00, 0x00, 0xa0, 0x00, 0x00, 0x00, 0x98, 0x00, 0x00, 0x00, 0x90, 0x00, 0x00, 0x00, 0x88, 0x00, 0x00, 0x00, 0x68, 0x00, 0x00, 0x00, 0x04, 0x00, 0x00, 0x00, 0x5e, 0x9a, 0xff, 0xff, 0x04, 0x00, 0x00, 0x00, 0x54, 0x00, 0x00, 0x00, 0x0c, 0x00, 0x00, 0x00, 0x08, 0x00, 0x0e, 0x00, 0x08, 0x00, 0x04, 0x00, 0x08, 0x00, 0x00, 0x00, 0x10, 0x00, 0x00, 0x00, 0x24, 0x00, 0x00, 0x00, 0x00, 0x00, 0x06, 0x00, 0x08, 0x00, 0x04, 0x00, 0x06, 0x00, 0x00, 0x00, 0x04, 0x00, 0x00, 0x00, 0x00, 0x00, 0x00, 0x00, 0x00, 0x00, 0x0a, 0x00, 0x10, 0x00, 0x0c, 0x00, 0x08, 0x00, 0x04, 0x00, 0x0a, 0x00, 0x00, 0x00, 0x02, 0x00, 0x00, 0x00, 0x02, 0x00, 0x00, 0x00, 0x04, 0x00, 0x00, 0x00, 0x06, 0x00, 0x00, 0x00, 0x32, 0x2e, 0x31, 0x35, 0x2e, 0x31, 0x00, 0x00, 0xbe, 0x9a, 0xff, 0xff, 0x04, 0x00, 0x00, 0x00, 0x10, 0x00, 0x00, 0x00, 0x31, 0x2e, 0x35, 0x2e, 0x30, 0x00, 0x00, 0x00, 0x00, 0x00, 0x00, 0x00, 0x00, 0x00, 0x00, 0x00, 0x60, 0x93, 0xff, 0xff, 0x64, 0x93, 0xff, 0xff, 0x68, 0x93, 0xff, 0xff, 0x6c, 0x93, 0xff, 0xff, 0x70, 0x93, 0xff, 0xff, 0x74, 0x93, 0xff, 0xff, 0xf2, 0x9a, 0xff, 0xff, 0x04, 0x00, 0x00, 0x00, 0xc0, 0x00, 0x00, 0x00, 0x8d, 0x11, 0x6e, 0x3e, 0x32, 0x60, 0x3f, 0xbe, 0xb7, 0x0e, 0x4a, 0x3e, 0xbc, 0x48, 0x4e, 0x3d, 0x0e, 0xbe, 0x9d, 0xbe, 0x3a, 0x54, 0xec, 0xbd, 0xbf, 0xa8, 0xda, 0x3d, 0xf3, 0xf0, 0x65, 0x3e, 0xe0, 0x44, 0x98, 0xbe, 0x47, 0x38, 0xb1, 0x3e, 0xa4, 0x78, 0xb2, 0x3e, 0xfc, 0x79, 0x9e, 0x3e, 0xdc, 0x0e, 0xd0, 0xbd, 0x4b, 0xb3, 0xab, 0xbc, 0xe2, 0xd0, 0x21, 0x3e, 0xa7, 0xb6, 0x6d, 0x3e, 0xbf, 0x17, 0x86, 0xbd, 0x08, 0x74, 0x8c, 0x3e, 0x4b, 0x69, 0x9d, 0x3e, 0x01, 0x12, 0xca, 0x3e, 0x37, 0x10, 0xe8, 0xbe, 0xee, 0xa0, 0x69, 0x3e, 0xe7, 0x60, 0xb6, 0xbe, 0xa6, 0xf7, 0xe6, 0x3e, 0xf5, 0xaf, 0xfd, 0x3e, 0xec, 0xee, 0xd5, 0xbe, 0xed, 0xa5, 0x3a, 0x3c, 0x38, 0x7a, 0x4c, 0x3e, 0xe2, 0x41, 0xd1, 0xbe, 0xa0, 0x00, 0xa3, 0xbe, 0xd7, 0x8e, 0x03, 0xbe, 0xcd, 0x4e, 0xf3, 0x3e, 0xeb, 0x05, 0xd0, 0xbe, 0x74, 0xd8, 0x9f, 0xbd, 0x6c, 0x2d, 0xef, 0x3e, 0x59, 0xa4, 0x98, 0x3e, 0xa4, 0x93, 0x0f, 0x3e, 0x34, 0x0e, 0xff, 0xbd, 0xad, 0xc2, 0x17, 0x3e, 0x3b, 0x79, 0x7c, 0x3e, 0xb2, 0xf3, 0x1f, 0xbe, 0x1b, 0x66, 0xf3, 0xbd, 0x8e, 0x83, 0xbc, 0x3e, 0x25, 0x6b, 0x66, 0xbe, 0x9c, 0x39, 0x1f, 0xbd, 0xb6, 0xc9, 0x06, 0x3f, 0x2e, 0x7e, 0x8a, 0x3d, 0x61, 0x74, 0x64, 0xbe, 0xbe, 0x9b, 0xff, 0xff, 0x04, 0x00, 0x00, 0x00, 0x00, 0x20, 0x00, 0x00, 0x0c, 0x45, 0x88, 0x3d, 0x34, 0x69, 0x9c, 0xbc, 0x27, 0x35, 0x1d, 0xbc, 0x5b, 0xb4, 0x14, 0x3d, 0xc5, 0xfd, 0x96, 0xbd, 0x7e, 0x82, 0x39, 0xbc, 0x42, 0x6d, 0x8e, 0x3c, 0x2d, 0x91, 0xa5, 0xbd, 0xa5, 0xdf, 0x90, 0x3d, 0x57, 0xee, 0xbc, 0xbd, 0x67, 0xe9, 0x3e, 0x3d, 0x41, 0xb3, 0x46, 0xbe, 0xb4, 0x10, 0xdd, 0xbd, 0x3f, 0x51, 0xbb, 0x3d, 0xa7, 0xc0, 0x7d, 0x3d, 0x8b, 0xc1, 0xa0, 0xbd, 0x3e, 0x42, 0xde, 0x3d, 0x1d, 0x45, 0xa2, 0x3b, 0xb5, 0xe7, 0x77, 0x3d, 0x9d, 0xc6, 0x84, 0xbd, 0xa3, 0x4e, 0xc5, 0xbd, 0x20, 0xde, 0x26, 0xbe, 0x01, 0x96, 0xf0, 0xbd, 0xe5, 0x67, 0xe2, 0x3d, 0xcb, 0x8c, 0x54, 0xbd, 0xce, 0x56, 0xc1, 0xbd, 0xb1, 0x3d, 0x46, 0xbd, 0x2d, 0x6c, 0x06, 0x3d, 0xc2, 0x29, 0x2d, 0x3e, 0x1c, 0x62, 0xfc, 0x3c, 0x29, 0x03, 0x14, 0x3e, 0x5b, 0xf6, 0x67, 0xbe, 0x6c, 0x2f, 0x41, 0xbe, 0x62, 0x53, 0x81, 0x3d, 0x85, 0x80, 0x9d, 0x3c, 0x23, 0xe5, 0xc9, 0xbe, 0x75, 0x97, 0x38, 0x3e, 0xa6, 0xf9, 0xac, 0x3d, 0x7e, 0xdd, 0x44, 0x3e, 0x49, 0x8c, 0x84, 0x3d, 0xdc, 0xde, 0x2f, 0xbd, 0x8c, 0xd7, 0x27, 0x3d, 0x8c, 0x6d, 0x11, 0x3e, 0x60, 0x78, 0x3f, 0x3e, 0xf5, 0x6f, 0xeb, 0xbc, 0x99, 0xa6, 0x79, 0x3d, 0x4f, 0xb7, 0x4b, 0xbe, 0x16, 0x94, 0xc1, 0x3c, 0x86, 0x31, 0xdd, 0xbe, 0x4c, 0x01, 0xaf, 0xbe, 0xf9, 0x1b, 0x3a, 0x3e, 0xd0, 0xd7, 0xdd, 0xbc, 0xb7, 0x6f, 0xff, 0xbd, 0x54, 0x7d, 0xd8, 0xbd, 0x49, 0x26, 0x88, 0xbb, 0xd7, 0xd0, 0xe0, 0xbe, 0x04, 0xbd, 0x3c, 0xbe, 0x7f, 0x9d, 0xf2, 0xbe, 0x39, 0xb1, 0x1e, 0xbe, 0x64, 0x15, 0x17, 0x3e, 0xe0, 0xf7, 0x57, 0xbe, 0x65, 0xa1, 0xe9, 0xbe, 0x36, 0xba, 0x20, 0xbe, 0xfc, 0xde, 0xd5, 0xbd, 0x68, 0xcd, 0x2b, 0x3e, 0xea, 0x62, 0x14, 0xbe, 0x8b, 0x0c, 0x34, 0xbd, 0x29, 0xf6, 0xc4, 0x3c, 0xe0, 0xf2, 0x04, 0x3d, 0x23, 0x94, 0x0f, 0xbe, 0x96, 0x36, 0x26, 0xbd, 0x0b, 0xd4, 0xa4, 0x3c, 0xb3, 0xb3, 0x62, 0xbc, 0xfa, 0x82, 0xb2, 0xbd, 0xb0, 0x2b, 0x01, 0x3e, 0xf6, 0xc2, 0xdf, 0x3d, 0xfc, 0x4b, 0x48, 0xbd, 0xac, 0x83, 0x22, 0x3e, 0x2c, 0x0c, 0x2c, 0x3d, 0x33, 0x96, 0x8e, 0x3c, 0xcb, 0xa8, 0x50, 0xbc, 0xad, 0x90, 0xed, 0xbc, 0x52, 0x38, 0x7a, 0xbc, 0x97, 0xd0, 0xee, 0xbd, 0x5a, 0xf0, 0xc9, 0xbc, 0x1a, 0xd1, 0x87, 0xbd, 0x06, 0x24, 0xb8, 0x3d, 0x93, 0x7f, 0xee, 0x3d, 0x50, 0x5e, 0x7a, 0x3b, 0x77, 0x5f, 0x5e, 0xbe, 0xf4, 0x24, 0xd6, 0xba, 0x63, 0x8b, 0x8b, 0xbd, 0xb2, 0x79, 0x12, 0x3e, 0xb8, 0x43, 0xd4, 0xbc, 0x34, 0x20, 0xec, 0x3d, 0xb4, 0x70, 0x82, 0x3b, 0xfa, 0xf9, 0xfc, 0xbd, 0xf2, 0x90, 0x2a, 0x3e, 0x5d, 0x79, 0xcf, 0xbd, 0x7f, 0x5d, 0x81, 0xbe, 0xda, 0x76, 0xdf, 0x3c, 0x40, 0xc4, 0x9b, 0x3e, 0x17, 0x9b, 0x95, 0x3e, 0x9b, 0xbe, 0x04, 0x3e, 0x44, 0xe6, 0xc6, 0xbe, 0xb9, 0x57, 0x21, 0x3d, 0xfc, 0xe7, 0xf8, 0x3c, 0x14, 0x20, 0xb2, 0x3e, 0x21, 0x3e, 0x36, 0xbd, 0x40, 0xd2, 0xdb, 0x3d, 0xcd, 0xb8, 0xd1, 0xbe, 0x36, 0x61, 0xef, 0xbb, 0x96, 0x48, 0x9e, 0xbe, 0xc1, 0x32, 0xba, 0xbe, 0xf7, 0x7b, 0x6e, 0x3e, 0xf0, 0x28, 0x58, 0xbe, 0xb6, 0x93, 0x6b, 0x3d, 0x62, 0xbc, 0x3f, 0xbe, 0x64, 0x7c, 0xb9, 0x3d, 0x84, 0xb1, 0xb3, 0xbe, 0x8e, 0x4f, 0x8f, 0x3d, 0x36, 0x13, 0xb6, 0xbe, 0x5d, 0xd4, 0x04, 0xbf, 0x7a, 0x57, 0x78, 0x3e, 0x10, 0x3c, 0x94, 0xbe, 0x81, 0x9e, 0xe6, 0xbd, 0xb5, 0x81, 0x04, 0xbf, 0x07, 0x6a, 0x72, 0xbd, 0x4a, 0xea, 0xaf, 0xbd, 0x1b, 0xe7, 0xbf, 0xbc, 0x82, 0x20, 0x8a, 0xbd, 0x60, 0x87, 0x9d, 0x3d, 0xc1, 0x84, 0x6e, 0xbd, 0x70, 0xd0, 0xe6, 0xbd, 0xb3, 0xe5, 0xeb, 0xbc, 0x28, 0xd0, 0xcd, 0xbd, 0xf7, 0xcb, 0xbd, 0x3d, 0x64, 0x73, 0xee, 0x3d, 0x77, 0xfb, 0x55, 0xbe, 0x18, 0xca, 0x80, 0xbd, 0x53, 0x79, 0x10, 0x3d, 0x6c, 0x50, 0x8c, 0x3d, 0x65, 0xab, 0x99, 0x3c, 0x2a, 0xad, 0x00, 0x3e, 0xbb, 0xed, 0x21, 0x3e, 0xfd, 0x7b, 0x04, 0x3d, 0x4b, 0x7f, 0xf5, 0xbd, 0xde, 0x7c, 0x6b, 0xbe, 0x49, 0xd4, 0x33, 0xbd, 0x2c, 0x87, 0xf7, 0xbc, 0x3d, 0x27, 0x37, 0x3e, 0x7e, 0x0a, 0x48, 0xbe, 0xf4, 0xdf, 0x27, 0xbb, 0x05, 0x3a, 0x8b, 0xbe, 0x5d, 0x3b, 0x1d, 0xbe, 0x15, 0x3e, 0xd1, 0x3d, 0x2d, 0x32, 0xf7, 0x3c, 0x4e, 0x16, 0x06, 0x3e, 0x9b, 0x01, 0xdd, 0xbd, 0x9e, 0x04, 0x63, 0x3d, 0x28, 0x41, 0x55, 0xbc, 0x94, 0x06, 0x83, 0xbb, 0xc1, 0x71, 0x93, 0xbe, 0xbb, 0xdb, 0x42, 0xbe, 0x1a, 0x07, 0x9e, 0x3e, 0xbf, 0xa0, 0xd5, 0x3c, 0xc7, 0x46, 0xe9, 0x3d, 0x79, 0xb4, 0xc6, 0x3d, 0xba, 0xd2, 0xc4, 0xbd, 0x0a, 0x6d, 0x7a, 0xbd, 0x9e, 0x78, 0x44, 0x3e, 0x65, 0x23, 0x12, 0xbd, 0x1f, 0x3a, 0xc3, 0xbd, 0xde, 0xa2, 0xd5, 0x3d, 0xa9, 0xb4, 0xd2, 0x3d, 0xb1, 0x23, 0xe8, 0xbd, 0x58, 0x61, 0x0b, 0x3e, 0x8b, 0x6a, 0xa9, 0xbe, 0x56, 0x6c, 0x0c, 0x3e, 0x85, 0x60, 0x8c, 0xbe, 0x8c, 0xf1, 0x56, 0x3e, 0x4d, 0x9d, 0x05, 0x3c, 0xd5, 0x1f, 0x8f, 0x3d, 0x00, 0x02, 0x48, 0x3e, 0x0e, 0xae, 0x67, 0x3d, 0x5d, 0xc7, 0xa2, 0x3d, 0xcb, 0x37, 0x45, 0xbe, 0xcf, 0xe5, 0x9d, 0x3c, 0x71, 0xa8, 0x2f, 0xbe, 0xe3, 0x07, 0x03, 0x3d, 0xff, 0x37, 0x50, 0xbd, 0x31, 0x08, 0x9e, 0xbe, 0x71, 0x5d, 0x47, 0x3c, 0xb0, 0x4c, 0x27, 0xbe, 0x94, 0x69, 0x80, 0x3c, 0x0a, 0xb8, 0xad, 0x3c, 0xb4, 0x8c, 0x1b, 0xbe, 0x83, 0x92, 0x16, 0xbe, 0x6f, 0x1f, 0x04, 0xbd, 0x3e, 0xb9, 0x49, 0xbd, 0xad, 0xd1, 0x0a, 0x3e, 0xc7, 0xc6, 0x4f, 0x3c, 0x56, 0xde, 0xb7, 0xbd, 0xd0, 0x75, 0xc3, 0x3d, 0xbd, 0xba, 0x75, 0xbc, 0x8f, 0x3e, 0x39, 0x3d, 0x43, 0x20, 0x3c, 0xbb, 0xc0, 0x33, 0x6c, 0x3e, 0x10, 0x1c, 0xd0, 0xbd, 0x71, 0x96, 0xfb, 0xbd, 0x76, 0x2f, 0x0a, 0xbe, 0x94, 0x64, 0x40, 0xbe, 0xea, 0x72, 0x9a, 0xbe, 0xea, 0xd6, 0x9a, 0x3d, 0xce, 0x9b, 0x04, 0x3e, 0x5c, 0x46, 0x14, 0xbe, 0xa0, 0x06, 0xa2, 0x3d, 0xd4, 0xd5, 0x93, 0xbe, 0xda, 0x5e, 0xb9, 0xbc, 0x05, 0x05, 0xce, 0x3d, 0x06, 0x7a, 0x7c, 0x3d, 0x9a, 0x17, 0xf8, 0x3d, 0x38, 0x25, 0x04, 0xbd, 0xfc, 0x48, 0xe7, 0xbd, 0x5f, 0x07, 0x0d, 0x3d, 0x29, 0x76, 0xc4, 0x3c, 0x5e, 0x71, 0x71, 0xbe, 0x2a, 0x67, 0xa0, 0xbd, 0x40, 0xa9, 0x81, 0xbe, 0x92, 0x14, 0xe0, 0xbc, 0x09, 0xab, 0x28, 0x3e, 0xd2, 0x9a, 0x8c, 0xbc, 0xcf, 0x65, 0xd5, 0x3d, 0xa7, 0x61, 0xb2, 0x3d, 0x9f, 0x16, 0x2d, 0x3c, 0xcc, 0xed, 0x30, 0xbd, 0xbf, 0x04, 0x74, 0x3d, 0x9a, 0x71, 0xc8, 0xbc, 0x97, 0x9f, 0x7b, 0x3e, 0x84, 0x8f, 0x3c, 0xbd, 0x9b, 0x1f, 0x07, 0xbd, 0xd5, 0x4a, 0x4c, 0xbd, 0xb4, 0x51, 0x9e, 0x3e, 0x78, 0xcf, 0x6e, 0xbe, 0xab, 0xcf, 0x74, 0x3e, 0x70, 0x34, 0x9d, 0x3d, 0x04, 0xa2, 0xc6, 0xba, 0x64, 0x81, 0xce, 0x3d, 0xf1, 0xd7, 0xa8, 0xbd, 0xda, 0x78, 0x70, 0xbc, 0xea, 0x87, 0x68, 0xbe, 0x0e, 0x9e, 0x2d, 0xbe, 0xfd, 0xcf, 0xbe, 0xbb, 0x9a, 0x3c, 0x9f, 0xbe, 0x64, 0x09, 0x02, 0xbc, 0x53, 0xde, 0xbd, 0xbe, 0x56, 0x50, 0x00, 0x3e, 0xb0, 0x69, 0xbe, 0x3d, 0xfe, 0x76, 0x92, 0xbe, 0x0e, 0xeb, 0x84, 0xbe, 0x5f, 0xa7, 0x4f, 0x3e, 0x0f, 0xb5, 0x11, 0xbd, 0x17, 0x78, 0x24, 0x3e, 0x91, 0x58, 0x68, 0x3d, 0xe3, 0x7a, 0x1e, 0x3e, 0x01, 0x1b, 0x33, 0x3e, 0xef, 0x16, 0x2f, 0xbe, 0x76, 0x00, 0x03, 0x3e, 0xf9, 0xb9, 0x00, 0x3e, 0xdb, 0xaa, 0xcb, 0xbd, 0x10, 0x41, 0x1e, 0xbe, 0xd5, 0x8e, 0xd5, 0x3d, 0x40, 0x18, 0xc0, 0x3d, 0xa9, 0xcb, 0xab, 0xbd, 0x9a, 0x68, 0xdf, 0xbc, 0x1d, 0x0d, 0x43, 0x3d, 0x04, 0x29, 0x1e, 0x3d, 0x1e, 0x5c, 0xe3, 0x3d, 0x09, 0x6b, 0xae, 0x3e, 0xfa, 0xf1, 0xf3, 0x3c, 0x72, 0x99, 0xe5, 0x3d, 0x58, 0xbb, 0xfe, 0xbd, 0x53, 0x3f, 0x8f, 0x3d, 0x67, 0x60, 0xad, 0x3e, 0x04, 0xcc, 0x61, 0x3e, 0xd9, 0x24, 0x13, 0xbe, 0xf5, 0x94, 0x3f, 0x3e, 0xbd, 0x06, 0x5c, 0x3e, 0x8b, 0xca, 0x0c, 0x3e, 0xa4, 0x4b, 0xed, 0xbd, 0x37, 0x36, 0x73, 0xbc, 0xef, 0xb7, 0x5b, 0x3e, 0xb0, 0x4c, 0x92, 0x3d, 0x04, 0x3a, 0xe0, 0x3d, 0x67, 0x5b, 0xb3, 0x3d, 0x31, 0x30, 0xd9, 0xbd, 0x53, 0xf2, 0xb0, 0x3d, 0xa0, 0x19, 0x14, 0x3e, 0x78, 0x61, 0xa5, 0xbd, 0x7e, 0x17, 0x63, 0xbc, 0xe3, 0xdb, 0x90, 0x3e, 0xb4, 0x11, 0x96, 0x3e, 0xf3, 0xbf, 0xac, 0xbb, 0x43, 0x45, 0x03, 0xbd, 0xc4, 0x8a, 0x1b, 0x3e, 0xa6, 0x2f, 0xc6, 0xbc, 0x64, 0x1f, 0x21, 0x3e, 0xdd, 0xda, 0x4b, 0xbe, 0xe9, 0xc0, 0x7c, 0x3d, 0x68, 0x82, 0x03, 0x3e, 0x86, 0x02, 0xc9, 0x3d, 0xfd, 0x01, 0xb6, 0x3c, 0xd7, 0xdb, 0x24, 0x3d, 0xb3, 0x31, 0x24, 0xbd, 0xd0, 0xe3, 0x8d, 0x3d, 0x59, 0xc2, 0x95, 0x3b, 0x62, 0xd6, 0xe2, 0x3d, 0x11, 0xa5, 0xb6, 0xbc, 0x9a, 0x51, 0x3f, 0xbe, 0xdf, 0xec, 0x23, 0xbe, 0xaa, 0xca, 0x7d, 0x3e, 0x69, 0x76, 0x41, 0x3c, 0x99, 0x4a, 0x8a, 0xbe, 0x9e, 0xab, 0x6b, 0xbe, 0xa0, 0x71, 0x51, 0xbd, 0x0a, 0x7c, 0x69, 0xbe, 0xa3, 0xb8, 0x55, 0x3e, 0x0b, 0x06, 0x90, 0xbe, 0xed, 0x1d, 0x37, 0x3e, 0x3c, 0xc0, 0x07, 0x3d, 0x63, 0xcb, 0xb5, 0xbc, 0x9b, 0xcd, 0x46, 0xbd, 0x17, 0x02, 0x1b, 0x3e, 0x26, 0xa5, 0xda, 0x3d, 0xab, 0x3d, 0xbd, 0xbd, 0x8b, 0x23, 0x25, 0x3e, 0x10, 0x16, 0xcc, 0x3d, 0xa5, 0x15, 0x32, 0xbe, 0xe9, 0x8d, 0x69, 0xbd, 0x6c, 0xe2, 0x2a, 0x3d, 0xe4, 0x1f, 0x8f, 0x3c, 0xb4, 0xe3, 0x55, 0xbe, 0x5a, 0xd4, 0x79, 0x3e, 0x64, 0x12, 0xda, 0xbd, 0xe3, 0x90, 0x3a, 0x3e, 0xf8, 0xe2, 0x23, 0xbe, 0x9e, 0x93, 0x05, 0xbd, 0xdc, 0x8d, 0xfa, 0x3d, 0x64, 0x47, 0x69, 0x3e, 0x75, 0xb0, 0x9d, 0xbe, 0xeb, 0xa1, 0x8e, 0x3e, 0x91, 0x5d, 0x95, 0x3e, 0x58, 0xa0, 0x78, 0x3e, 0xa3, 0x38, 0x11, 0x3e, 0x52, 0x25, 0x06, 0x3d, 0xfb, 0x0a, 0xd1, 0x3d, 0x1c, 0xf7, 0x83, 0xbd, 0x8f, 0xc9, 0x43, 0x3e, 0xc5, 0x7e, 0x17, 0x3e, 0x1e, 0x02, 0xd4, 0xbd, 0x3e, 0xef, 0x72, 0xbd, 0x0e, 0x3e, 0x48, 0xbd, 0x6f, 0xf5, 0x3f, 0xbe, 0xc0, 0x45, 0x7c, 0x3d, 0x05, 0x1c, 0xa2, 0xbd, 0x98, 0x73, 0x72, 0xbe, 0xf3, 0x9e, 0x86, 0x3d, 0x50, 0x3c, 0xde, 0xbd, 0x2b, 0x53, 0xe7, 0x3d, 0x23, 0x96, 0x48, 0x3d, 0x03, 0xf7, 0x8c, 0x3d, 0x33, 0xc1, 0x82, 0xbe, 0x4f, 0x8f, 0x9c, 0x3d, 0x12, 0x94, 0xe7, 0x3e, 0xbf, 0xd4, 0x41, 0x3d, 0xb3, 0xa9, 0xb4, 0x3d, 0xb4, 0x38, 0x3a, 0x3e, 0xb2, 0xa8, 0x55, 0xbd, 0x8c, 0xc6, 0xd2, 0xbd, 0xb8, 0x30, 0xf5, 0xbb, 0x6d, 0xaa, 0x29, 0x3e, 0x60, 0x7e, 0x99, 0xbc, 0x5c, 0x22, 0x56, 0x3e, 0xdf, 0x46, 0x5a, 0xbd, 0x38, 0x53, 0x9e, 0xbd, 0x8d, 0xa8, 0x6d, 0xbe, 0x09, 0x43, 0x94, 0xbe, 0x7e, 0x7e, 0x26, 0xbd, 0xeb, 0x0c, 0x44, 0xbd, 0x05, 0x99, 0xa9, 0xbd, 0x7e, 0x9a, 0xef, 0xbc, 0x92, 0x32, 0xcf, 0xbd, 0x0f, 0x89, 0x5c, 0xbd, 0x91, 0x53, 0x59, 0xbd, 0xd1, 0x51, 0xb0, 0x3b, 0xbf, 0x54, 0xb7, 0x3d, 0x5a, 0x9e, 0x6e, 0x3d, 0x99, 0xfb, 0x32, 0xbd, 0x10, 0x32, 0x1f, 0xbe, 0x2c, 0x5e, 0x9e, 0x3d, 0x83, 0xad, 0xcb, 0xbd, 0xf6, 0x6c, 0x5d, 0xbc, 0x6f, 0x4f, 0xfb, 0xbd, 0xb4, 0x80, 0x9e, 0x3d, 0xf8, 0x36, 0x67, 0x3d, 0xda, 0x68, 0x34, 0x3e, 0x16, 0x75, 0x48, 0x3e, 0x69, 0x02, 0xfc, 0x3d, 0x50, 0x27, 0x45, 0xbe, 0xed, 0xe0, 0xe1, 0xbd, 0x4d, 0xe2, 0x6b, 0x3d, 0xb4, 0xb0, 0x69, 0xbe, 0xc2, 0x3a, 0xdb, 0x3d, 0x13, 0x45, 0xc4, 0x3d, 0xd0, 0x70, 0xb1, 0x3d, 0x1b, 0x5f, 0x90, 0xbc, 0x14, 0x15, 0x32, 0x3e, 0xce, 0xe7, 0x24, 0x3e, 0x7b, 0x9b, 0xec, 0x3d, 0x84, 0xed, 0x34, 0xbe, 0x6b, 0x00, 0x68, 0xbd, 0x5f, 0xe6, 0x2a, 0xbe, 0xe8, 0xac, 0xc8, 0xbd, 0xb0, 0xaf, 0xb5, 0xbd, 0x22, 0xda, 0x44, 0xbe, 0x1a, 0x34, 0xc8, 0x3c, 0x01, 0xc1, 0x36, 0x3e, 0xe9, 0x49, 0x7f, 0x3d, 0x03, 0x79, 0x3c, 0x3e, 0xfb, 0xe1, 0x84, 0xbd, 0x5d, 0x59, 0x80, 0xbe, 0x5a, 0x8b, 0x45, 0x3c, 0xfd, 0x87, 0xe0, 0xbb, 0x5b, 0x6c, 0xeb, 0xbd, 0x65, 0xfb, 0x6e, 0x3e, 0x06, 0x27, 0xcc, 0xbb, 0xad, 0x51, 0x1f, 0xbe, 0xb6, 0x19, 0xde, 0xbc, 0x04, 0x2b, 0x15, 0x3e, 0xb6, 0xc4, 0x04, 0xbe, 0x03, 0x07, 0x19, 0xbd, 0x6b, 0xf3, 0xa1, 0x3d, 0x55, 0x1e, 0xec, 0xbd, 0x30, 0x40, 0xc9, 0x3d, 0xc9, 0x2f, 0xd0, 0xbd, 0xbc, 0x0f, 0x4f, 0xbe, 0xcb, 0x26, 0x20, 0xbe, 0xfd, 0x89, 0x82, 0x3e, 0x71, 0xcc, 0x3b, 0xbd, 0x05, 0xa0, 0xe4, 0x3d, 0xa3, 0x3d, 0x45, 0xbe, 0x79, 0x03, 0xaa, 0x3c, 0xf9, 0xeb, 0x76, 0xbd, 0x02, 0x80, 0x86, 0x3d, 0xe7, 0x03, 0x93, 0xbd, 0xbd, 0x45, 0xb4, 0xbd, 0xb8, 0x7a, 0xf3, 0x3c, 0x0b, 0x33, 0x6f, 0x3d, 0x63, 0xe1, 0x03, 0xbd, 0x4a, 0x25, 0x1c, 0xbe, 0x1b, 0xb6, 0x4f, 0xbe, 0x51, 0x17, 0x65, 0x3c, 0xb9, 0x2b, 0x53, 0xbe, 0x09, 0x4f, 0x2f, 0x3d, 0x68, 0x7e, 0x72, 0xbe, 0x74, 0xa2, 0x45, 0xbe, 0x06, 0xe7, 0xc8, 0x3d, 0x77, 0x7a, 0xa3, 0x3d, 0xeb, 0xa0, 0x6a, 0x3d, 0xe3, 0xfb, 0x95, 0xbd, 0x56, 0x34, 0x1c, 0xbe, 0x3c, 0xb0, 0x85, 0x3d, 0x60, 0x81, 0x00, 0x3e, 0x6f, 0xee, 0x63, 0xbe, 0x9a, 0xdd, 0xe3, 0xbb, 0x10, 0x45, 0x52, 0xbe, 0xad, 0xbb, 0x1f, 0x3d, 0x19, 0xd5, 0x2a, 0x3d, 0xb7, 0xaa, 0x8c, 0xbe, 0x84, 0xe1, 0xd4, 0xbc, 0xde, 0xc8, 0x41, 0x3e, 0x4f, 0x53, 0xc6, 0x3d, 0xb4, 0x5d, 0xb2, 0xbd, 0x7d, 0x2e, 0x46, 0xbe, 0x49, 0x9c, 0x82, 0x3d, 0xf5, 0xf9, 0x05, 0x3d, 0x05, 0x76, 0xb5, 0x3d, 0x81, 0x1c, 0x15, 0x3d, 0xb7, 0xe8, 0xe1, 0x3d, 0x66, 0x08, 0xe2, 0x3d, 0xe6, 0xbb, 0xaf, 0x3d, 0xd4, 0x6e, 0x79, 0x3c, 0x94, 0x3b, 0x77, 0x3e, 0xdf, 0x5d, 0xc6, 0xbc, 0x06, 0x48, 0x1d, 0xbe, 0x63, 0xc8, 0x49, 0x3e, 0x02, 0xd1, 0xd1, 0xbc, 0x71, 0x37, 0x23, 0xbe, 0x0f, 0xad, 0x4e, 0xbc, 0x62, 0x77, 0xce, 0xbc, 0x1b, 0x6d, 0xa5, 0x3d, 0x49, 0xc9, 0x60, 0xbd, 0x36, 0x84, 0x4e, 0xbe, 0xab, 0xa4, 0x20, 0xbd, 0x12, 0xe0, 0xab, 0xbd, 0x9f, 0xd8, 0xa6, 0xbe, 0x63, 0x1c, 0xa5, 0xbe, 0x32, 0x70, 0xe3, 0x3d, 0x04, 0x64, 0x9e, 0x3c, 0xbc, 0x1b, 0xeb, 0xbc, 0x56, 0xb5, 0x70, 0xbe, 0xbe, 0xfa, 0x49, 0x3e, 0xfa, 0xaf, 0x01, 0xbd, 0x5e, 0xeb, 0xad, 0xbd, 0x91, 0x0b, 0xff, 0x3d, 0xaf, 0x6c, 0x16, 0xbd, 0xce, 0x7c, 0xf2, 0x3d, 0xdd, 0xe8, 0x40, 0x3d, 0x39, 0xeb, 0xcf, 0xbc, 0x49, 0xc2, 0x24, 0x3e, 0x3e, 0xbc, 0x2c, 0xbe, 0x42, 0x46, 0x2b, 0xbe, 0xa6, 0x51, 0x23, 0x3d, 0x68, 0xb1, 0xd5, 0x3c, 0x7f, 0x84, 0x26, 0x3d, 0x83, 0x1d, 0xe4, 0xbd, 0xe7, 0x56, 0x5f, 0xbe, 0x61, 0xc0, 0xf8, 0x3d, 0x8a, 0xe4, 0x91, 0xbd, 0x56, 0x54, 0x46, 0xbe, 0xf3, 0x53, 0x20, 0x3c, 0x95, 0x24, 0x40, 0x3c, 0xcd, 0x9f, 0x06, 0xbe, 0x2b, 0x1c, 0xc6, 0x3b, 0x87, 0xe7, 0xe3, 0x3c, 0x4e, 0xbd, 0x94, 0x3d, 0x16, 0x03, 0x1c, 0x3e, 0xc4, 0x73, 0x7b, 0xbe, 0x8d, 0xe2, 0x33, 0xbe, 0x7f, 0xca, 0x85, 0xbd, 0x8d, 0xb0, 0xab, 0xbd, 0xe3, 0x61, 0x35, 0xbe, 0xae, 0x0f, 0x2f, 0x3d, 0x24, 0xda, 0x09, 0x3d, 0xbd, 0x25, 0x0b, 0xbc, 0x48, 0x76, 0x1d, 0x3e, 0xbe, 0x49, 0x0e, 0xbc, 0xb7, 0xfc, 0x54, 0xbd, 0x34, 0x4b, 0x97, 0xbe, 0x3a, 0xd9, 0x1a, 0xbe, 0x47, 0x79, 0xba, 0xbb, 0xc4, 0x73, 0x34, 0x3e, 0x9d, 0x76, 0x33, 0xbe, 0xd3, 0x7e, 0x96, 0x3d, 0x18, 0x83, 0x33, 0xbe, 0x82, 0x21, 0x88, 0x3d, 0x1b, 0x6a, 0x3a, 0xbd, 0x3f, 0x47, 0xa9, 0x3d, 0x44, 0xf6, 0x8e, 0xbe, 0x9c, 0x29, 0x94, 0xbe, 0xe8, 0x6f, 0xd7, 0x3d, 0x7d, 0xea, 0x0c, 0x3e, 0x12, 0xc9, 0xc4, 0xbd, 0x76, 0xc4, 0xd8, 0xbc, 0x2d, 0xa2, 0x87, 0x3c, 0xb9, 0x5d, 0xa0, 0xbe, 0xe8, 0xac, 0xaf, 0x3d, 0x25, 0x37, 0x8c, 0xbe, 0xe1, 0x72, 0x76, 0xbe, 0x39, 0x1e, 0x11, 0xbe, 0xca, 0x41, 0xef, 0x3c, 0xab, 0x9e, 0x50, 0xbd, 0xe4, 0xd9, 0x1a, 0xbe, 0x30, 0x09, 0x6f, 0xbe, 0xa2, 0xee, 0x48, 0xbd, 0x57, 0xfc, 0xef, 0x3d, 0x07, 0x26, 0x89, 0xbc, 0x0e, 0x32, 0x8a, 0x3d, 0x38, 0x49, 0x24, 0xbe, 0x9b, 0xc9, 0x7c, 0xbd, 0x35, 0xca, 0xa4, 0x3d, 0x4d, 0x00, 0x22, 0x3c, 0x7a, 0x87, 0x6d, 0x3e, 0x25, 0x42, 0x79, 0xbc, 0x09, 0xba, 0x3e, 0xbe, 0x36, 0x9d, 0x43, 0xbe, 0x11, 0xbd, 0x0e, 0xbd, 0x1a, 0xfc, 0x0d, 0xbe, 0x93, 0xff, 0x72, 0xbc, 0xc4, 0xc0, 0x10, 0xbd, 0xbe, 0xb8, 0xc3, 0x3d, 0xa1, 0xea, 0x9a, 0xbd, 0xbd, 0xe6, 0xdc, 0xbd, 0x14, 0x5d, 0x35, 0x3e, 0xfa, 0xdd, 0x98, 0x3e, 0xca, 0xd2, 0x28, 0x3d, 0x21, 0xe8, 0xc1, 0xbd, 0xff, 0x3d, 0xc9, 0x3d, 0xbd, 0x63, 0x38, 0xbc, 0x02, 0xef, 0x25, 0xbe, 0x87, 0x6a, 0xb7, 0x3d, 0x39, 0x10, 0x8f, 0xbe, 0x70, 0xb7, 0x8b, 0x3c, 0x77, 0xc0, 0xed, 0xbd, 0x0c, 0x76, 0xc8, 0xbd, 0x69, 0x24, 0xbc, 0x3d, 0xde, 0xb8, 0x7c, 0xbc, 0xed, 0x86, 0xd9, 0xbd, 0x45, 0x0c, 0xa4, 0x3c, 0x92, 0x3a, 0xeb, 0x3c, 0x39, 0x24, 0x08, 0x3e, 0x04, 0x74, 0x03, 0x3b, 0xe2, 0x88, 0x38, 0x3e, 0x1b, 0x4e, 0x1a, 0xbe, 0xba, 0xc1, 0x42, 0xbe, 0xbb, 0xac, 0x2d, 0x3e, 0x44, 0x7c, 0x72, 0xbe, 0xe6, 0x50, 0x16, 0xbc, 0xfd, 0x2f, 0xab, 0x3d, 0xaa, 0x4f, 0x2c, 0xbe, 0xba, 0xd9, 0x5f, 0xbc, 0x04, 0x86, 0x29, 0xbe, 0x8c, 0x48, 0x82, 0x3b, 0x1a, 0x6a, 0x54, 0x3c, 0x60, 0x00, 0x79, 0xbd, 0xe5, 0x31, 0x47, 0xbe, 0x20, 0xdd, 0x71, 0xbe, 0x95, 0x6d, 0x44, 0x3d, 0x76, 0x4a, 0x0b, 0x3e, 0xf1, 0xf4, 0x1d, 0xbe, 0x02, 0x15, 0x1c, 0x3e, 0x8f, 0x02, 0xe4, 0xbc, 0x2f, 0xca, 0xd0, 0xbd, 0xf0, 0xb3, 0xfb, 0xbd, 0x57, 0x32, 0xa4, 0x3d, 0x29, 0xd9, 0x03, 0xbe, 0x07, 0xf5, 0x8a, 0xbe, 0x7b, 0x13, 0x55, 0xbe, 0x69, 0x93, 0x33, 0xbe, 0x21, 0x58, 0xea, 0xbd, 0xa8, 0xcd, 0x63, 0x3c, 0x74, 0xf5, 0x1b, 0xbe, 0xb2, 0xbb, 0x34, 0xbe, 0xbc, 0x51, 0x0a, 0xbe, 0xa4, 0x34, 0x44, 0x3d, 0x62, 0x8d, 0xcd, 0x3d, 0x25, 0xc5, 0xab, 0x3d, 0xbf, 0xcf, 0x55, 0x3e, 0x13, 0xa4, 0x07, 0xbe, 0xe6, 0xe2, 0x1a, 0x3e, 0xcc, 0x9a, 0x8c, 0xbe, 0x62, 0x12, 0xec, 0x3c, 0x6f, 0x95, 0x0e, 0x3d, 0xc8, 0xae, 0x54, 0x3d, 0xfd, 0xff, 0xc8, 0x3d, 0x38, 0xd1, 0xfd, 0x3d, 0x4e, 0x4b, 0xdc, 0x3d, 0x6c, 0x50, 0x81, 0xbc, 0x40, 0x06, 0x9d, 0x3d, 0x11, 0x78, 0x87, 0xbe, 0x78, 0xa3, 0xdf, 0xbd, 0xe5, 0xff, 0x5e, 0xbe, 0x29, 0x75, 0x49, 0xbe, 0x9d, 0xdd, 0xde, 0xbd, 0xe3, 0xb0, 0x82, 0x3c, 0x7d, 0x83, 0xeb, 0xbe, 0xb6, 0x0c, 0x5b, 0xbe, 0xd2, 0xe0, 0xd1, 0x3d, 0x4b, 0xec, 0xae, 0x3d, 0x91, 0xc0, 0xd7, 0xbc, 0xee, 0x7b, 0x97, 0xbe, 0x8d, 0x11, 0x80, 0x3e, 0xbe, 0x19, 0x89, 0xbd, 0x01, 0x84, 0x21, 0xbe, 0x13, 0x3c, 0xc5, 0xbe, 0x81, 0x21, 0x4b, 0x3d, 0x87, 0xb5, 0x20, 0xbe, 0x13, 0xab, 0x93, 0xbe, 0x8b, 0xf7, 0x4e, 0xbe, 0xa2, 0x9b, 0xa3, 0xbd, 0x05, 0x20, 0x18, 0x3e, 0xb1, 0x4e, 0x5f, 0x3d, 0x65, 0xff, 0xe1, 0x3c, 0x53, 0x28, 0x53, 0x3d, 0x33, 0xa0, 0xe8, 0xbc, 0x83, 0xd5, 0xea, 0xbd, 0xe4, 0x91, 0xd3, 0xbd, 0x45, 0x9c, 0xae, 0x3d, 0x4a, 0x7e, 0xc2, 0xbc, 0x02, 0x81, 0xbd, 0xbd, 0xd4, 0x7b, 0x38, 0xbd, 0xa1, 0x67, 0x8e, 0xbe, 0x96, 0x77, 0xd6, 0xbd, 0xa4, 0x4d, 0xff, 0x3d, 0x4b, 0x1d, 0x61, 0xbe, 0x0e, 0x53, 0x30, 0x3e, 0xf1, 0x91, 0x97, 0x3e, 0x32, 0xc7, 0x1e, 0x3d, 0x21, 0x46, 0x2a, 0x3e, 0xe7, 0xab, 0x48, 0x3e, 0x51, 0xeb, 0x8a, 0x3e, 0x56, 0x04, 0x72, 0x3e, 0x6c, 0xf4, 0x02, 0xbe, 0xd9, 0xd3, 0x84, 0xbe, 0xc1, 0x30, 0x80, 0xbe, 0x0f, 0x6f, 0xa2, 0xbe, 0xe5, 0x34, 0x0f, 0xbe, 0x2b, 0xd2, 0xb3, 0xbc, 0x83, 0x67, 0xbc, 0xbd, 0x51, 0xad, 0xaf, 0x3d, 0xbf, 0x62, 0x20, 0x3e, 0xf2, 0x0e, 0x00, 0x3e, 0x4e, 0x45, 0x28, 0xbb, 0xfb, 0xe1, 0xaa, 0x3c, 0x21, 0x60, 0xd7, 0xbd, 0xfa, 0xef, 0x82, 0x3e, 0xf1, 0x58, 0xba, 0x3d, 0xf8, 0x95, 0x7e, 0xbe, 0xc5, 0xa9, 0xb8, 0xbc, 0xac, 0x47, 0x95, 0xbd, 0x0d, 0x1d, 0x4b, 0x3d, 0xcc, 0xdd, 0x83, 0xbd, 0x87, 0x45, 0x88, 0x3e, 0x50, 0x1d, 0xfd, 0xbd, 0x68, 0xc4, 0x3c, 0x3c, 0xe5, 0xaf, 0x31, 0xbe, 0x13, 0xea, 0x67, 0xbe, 0x67, 0xe5, 0x50, 0xbd, 0xc6, 0x40, 0x23, 0xbe, 0xde, 0x02, 0xc4, 0xbe, 0x84, 0x9e, 0x91, 0xbe, 0xe0, 0x0d, 0x88, 0x3e, 0xe7, 0x15, 0x0f, 0xbe, 0xd8, 0x7b, 0xa0, 0xbe, 0xc0, 0x20, 0x36, 0xbe, 0xee, 0x0c, 0x7b, 0x3d, 0xa2, 0xa9, 0xe2, 0x3d, 0xd8, 0xef, 0xe1, 0xbc, 0xe0, 0x00, 0x0f, 0xbe, 0x07, 0x42, 0x09, 0x3e, 0x54, 0xe0, 0x08, 0xbe, 0xeb, 0x30, 0x87, 0xbe, 0x6b, 0x9c, 0xd0, 0x3d, 0x5e, 0x01, 0x1e, 0xbb, 0x0b, 0x98, 0xc1, 0x3c, 0xc5, 0x93, 0xc7, 0xbc, 0xd0, 0x62, 0xfe, 0xbd, 0xa4, 0xeb, 0x6c, 0xbc, 0x92, 0x7a, 0x90, 0xbd, 0xbc, 0x42, 0xdc, 0x3d, 0x90, 0xf4, 0x80, 0x3c, 0xed, 0x92, 0xa2, 0xbe, 0x69, 0xd3, 0xfe, 0x3d, 0xb1, 0x61, 0xb8, 0xbc, 0x85, 0xbd, 0xd2, 0x3d, 0xe8, 0x6f, 0x08, 0xbf, 0x0c, 0xdb, 0x72, 0xbe, 0x6c, 0xa0, 0xa9, 0x3d, 0x2a, 0xd9, 0xac, 0xbe, 0xe5, 0x2c, 0xdf, 0xbc, 0x89, 0x97, 0xad, 0x3d, 0x91, 0x44, 0xa4, 0x3d, 0x17, 0x5b, 0x91, 0x3d, 0x9c, 0x42, 0x76, 0x3e, 0xe8, 0x49, 0x7f, 0x3e, 0xce, 0x38, 0x52, 0x3e, 0xdc, 0x99, 0x8f, 0x3e, 0x30, 0x4c, 0x3a, 0xbd, 0x0d, 0xed, 0xb3, 0x3d, 0x7c, 0xef, 0x28, 0x3e, 0x44, 0x1a, 0x38, 0xbe, 0x49, 0xb2, 0xf7, 0xbd, 0x1c, 0xa1, 0x3d, 0x3e, 0x11, 0x6a, 0x85, 0x3d, 0x9c, 0x8e, 0xed, 0xbd, 0xeb, 0xd4, 0x93, 0xbd, 0xd2, 0x59, 0x55, 0xbe, 0x78, 0x44, 0xc4, 0xbd, 0x26, 0x84, 0x3b, 0xbe, 0xcd, 0xd8, 0x84, 0xbd, 0x30, 0x02, 0x84, 0xbd, 0xf7, 0x7d, 0xdb, 0x3d, 0xbe, 0xd2, 0x13, 0xbe, 0x6c, 0xa0, 0x77, 0x3d, 0x0e, 0x06, 0x14, 0xbd, 0x6c, 0xe0, 0xab, 0xbd, 0x12, 0xd9, 0x15, 0xbd, 0x3b, 0x5a, 0xca, 0xbc, 0x85, 0xc0, 0x82, 0xbc, 0xbc, 0xb5, 0xa6, 0x3d, 0xe9, 0xa4, 0xb5, 0x3d, 0x45, 0x1d, 0xb6, 0x3d, 0x37, 0x72, 0x0e, 0x3e, 0x7f, 0x9f, 0x25, 0x3c, 0xdf, 0x21, 0x70, 0xbe, 0x7d, 0x64, 0xab, 0x3d, 0x2c, 0x51, 0x4b, 0xbc, 0xc7, 0xa5, 0x96, 0x3c, 0xb1, 0x43, 0x68, 0x3c, 0xaf, 0xe4, 0x9f, 0xbd, 0x5b, 0xdb, 0x7b, 0xbe, 0x34, 0x00, 0xbb, 0x3c, 0x90, 0xaf, 0x44, 0x3d, 0x89, 0x6a, 0x0e, 0xbd, 0x93, 0x11, 0xe4, 0xbd, 0x93, 0xd1, 0x81, 0xbd, 0x41, 0x0e, 0x0f, 0x3e, 0xb0, 0xe1, 0x45, 0x3e, 0x2b, 0x25, 0x38, 0xbe, 0x17, 0xef, 0x18, 0xbe, 0x3d, 0x44, 0x2d, 0x3e, 0x61, 0xe0, 0x2f, 0x3e, 0x5b, 0x50, 0x86, 0x3d, 0x13, 0x45, 0x32, 0xbe, 0xe9, 0x9e, 0x58, 0xbe, 0xd3, 0x75, 0x14, 0xbe, 0x03, 0xe3, 0x80, 0xbb, 0xad, 0x4e, 0x22, 0xbc, 0x47, 0xcb, 0xcc, 0xbd, 0x24, 0x6a, 0x48, 0xb8, 0xc3, 0x7f, 0x4b, 0xbe, 0x9e, 0x4f, 0x78, 0x3d, 0xac, 0xdc, 0x68, 0xbd, 0x7a, 0xb1, 0x2d, 0xbe, 0xda, 0x97, 0xe8, 0x3c, 0x2f, 0xb9, 0x40, 0xbe, 0xea, 0x15, 0x59, 0xbe, 0x98, 0xb7, 0x0d, 0xbd, 0xa0, 0xd7, 0x4b, 0xbe, 0x08, 0x3e, 0x2c, 0x3d, 0xb1, 0xb1, 0x70, 0xbe, 0x92, 0x2f, 0xf4, 0x3d, 0xf6, 0x75, 0x00, 0xbe, 0x9d, 0x33, 0x92, 0xbd, 0x21, 0xb5, 0xc3, 0xbd, 0x09, 0xd9, 0x13, 0x3d, 0x70, 0xe5, 0xfc, 0xbc, 0x87, 0x75, 0x95, 0x3d, 0xfe, 0xc2, 0x92, 0xbe, 0xc4, 0x10, 0x1d, 0x3e, 0xf0, 0x89, 0xeb, 0x3d, 0xb1, 0x51, 0xc1, 0x3c, 0x9d, 0xfb, 0x31, 0xbe, 0x12, 0x27, 0x22, 0x3d, 0xb1, 0x49, 0x0e, 0xbe, 0x7d, 0x04, 0xeb, 0xbb, 0xa8, 0xd9, 0x3f, 0xbe, 0x5d, 0x7d, 0xb5, 0xbd, 0x13, 0x24, 0x12, 0xbd, 0x88, 0x7a, 0x6c, 0xbd, 0x64, 0x66, 0xdc, 0x3c, 0xb8, 0xd1, 0x3d, 0xbe, 0x01, 0x06, 0xf5, 0xbd, 0x8a, 0x58, 0xe4, 0x3c, 0x0b, 0x67, 0x40, 0x3e, 0x7e, 0x41, 0x44, 0xbe, 0xc8, 0x84, 0xdd, 0x3d, 0xb5, 0x01, 0x21, 0xbe, 0x33, 0x7e, 0xc8, 0xbd, 0xcc, 0x7f, 0x0c, 0xbe, 0xce, 0x29, 0x27, 0x3e, 0x7a, 0xd3, 0xdc, 0xbd, 0x43, 0x0c, 0xbd, 0x3c, 0x16, 0x98, 0x2c, 0xbd, 0xe6, 0xde, 0x89, 0xbe, 0xd9, 0x39, 0xe8, 0xbd, 0xaf, 0xfd, 0xcd, 0xbc, 0x07, 0xc5, 0x27, 0xbe, 0x61, 0xa6, 0xae, 0x3c, 0xb0, 0x29, 0xe3, 0xbd, 0x5b, 0xae, 0x37, 0xbe, 0x06, 0xb4, 0x98, 0x3d, 0x2b, 0xc5, 0x0d, 0xbe, 0xaa, 0xce, 0xb7, 0x3d, 0x6c, 0xcd, 0x40, 0xbe, 0xc5, 0xe7, 0x7e, 0xbd, 0xb7, 0xf9, 0xa6, 0xbd, 0x17, 0x45, 0xd3, 0x3c, 0xef, 0x6f, 0x46, 0xbe, 0x52, 0xf8, 0x26, 0xbe, 0x89, 0xd6, 0xbb, 0x3d, 0x94, 0x6e, 0x13, 0xbe, 0xcf, 0xa0, 0x14, 0x3d, 0xd4, 0x33, 0xac, 0x3d, 0x0a, 0x91, 0x8d, 0xbe, 0xf3, 0x24, 0xfb, 0xbd, 0x75, 0x83, 0xaa, 0xbd, 0x13, 0x60, 0x24, 0x3e, 0x97, 0x86, 0x47, 0xbe, 0xb8, 0x05, 0x8a, 0x3c, 0xbf, 0xbb, 0x2b, 0xbd, 0x69, 0xe2, 0xf1, 0xbd, 0xcd, 0x2a, 0x1a, 0xbe, 0xc6, 0xc4, 0x94, 0x3c, 0x59, 0xbf, 0x68, 0x3d, 0xef, 0x7e, 0x83, 0x3d, 0xa1, 0x55, 0x1a, 0xbe, 0x41, 0x2f, 0x57, 0xbe, 0xae, 0xd3, 0x24, 0x3e, 0x38, 0xdc, 0xa0, 0xbd, 0x34, 0x7c, 0x42, 0x3e, 0xbe, 0xd4, 0x4c, 0x3e, 0x71, 0xbb, 0x99, 0x3d, 0xbc, 0x7c, 0x0d, 0xbe, 0x98, 0x9e, 0xab, 0xbd, 0x04, 0xce, 0x51, 0x3a, 0x12, 0x93, 0x07, 0x3d, 0x9f, 0xbd, 0x27, 0x3e, 0x19, 0xcd, 0xbb, 0xbc, 0x0a, 0x0a, 0x28, 0xbc, 0x45, 0x2a, 0x19, 0x3d, 0x46, 0x0d, 0x44, 0x3d, 0xf9, 0xf9, 0x93, 0xbe, 0xeb, 0xdb, 0xa8, 0xbd, 0xe8, 0xbe, 0xa7, 0x3e, 0x57, 0x6b, 0x6e, 0xbd, 0x1e, 0x88, 0xee, 0x3d, 0x74, 0x75, 0x06, 0x3e, 0x7c, 0x77, 0x35, 0xbe, 0x90, 0xe6, 0x67, 0xbd, 0x77, 0xdb, 0xf0, 0xbd, 0xc4, 0x43, 0x8e, 0x3d, 0x9d, 0x3b, 0x58, 0xbe, 0x92, 0x72, 0xc3, 0x3d, 0x61, 0x1e, 0xcc, 0xbd, 0x77, 0x94, 0x84, 0x3d, 0x47, 0xa9, 0x83, 0x3d, 0x5e, 0x0d, 0xcc, 0xbe, 0x44, 0x75, 0x1f, 0xbe, 0x81, 0x58, 0x54, 0x3d, 0xb1, 0x98, 0x84, 0xbb, 0x05, 0x9f, 0x9a, 0x3d, 0xea, 0xe1, 0xbc, 0xbc, 0x3a, 0x62, 0x29, 0x3d, 0x35, 0x16, 0xca, 0x3d, 0xd4, 0xeb, 0x85, 0x3e, 0xb8, 0xc1, 0xbd, 0x3d, 0xe4, 0x98, 0x2e, 0x3e, 0x0f, 0x71, 0x41, 0xbe, 0xa0, 0xc0, 0xf4, 0xbc, 0xe9, 0x24, 0x1d, 0xbe, 0x3a, 0x86, 0x8a, 0xbd, 0x31, 0xb9, 0x8c, 0x3d, 0x10, 0xf7, 0x5e, 0x3e, 0xfe, 0x31, 0x17, 0xbe, 0x6e, 0x1e, 0xe5, 0x3c, 0x60, 0x01, 0x72, 0x3e, 0xe9, 0x8b, 0xc0, 0xbc, 0x76, 0x68, 0x2d, 0x3e, 0xb9, 0x1f, 0xb8, 0x3d, 0x8d, 0xb9, 0x97, 0x3e, 0x34, 0x68, 0x32, 0x3d, 0xb6, 0xa6, 0x38, 0x3e, 0xe2, 0xf8, 0x12, 0x3e, 0xfa, 0x6f, 0x6f, 0xbc, 0x9a, 0x68, 0x55, 0xbd, 0xcf, 0x84, 0xc0, 0xbb, 0xa9, 0xab, 0xb2, 0xbc, 0x3e, 0xf3, 0xc2, 0x3d, 0x21, 0xad, 0x44, 0xbe, 0xbc, 0x7d, 0x4b, 0xbe, 0x10, 0xd2, 0x5b, 0xbd, 0xee, 0xf4, 0xcd, 0xba, 0x84, 0xa0, 0x62, 0x3d, 0x4f, 0x9e, 0x29, 0xbe, 0x26, 0x6b, 0xa5, 0x3d, 0xbe, 0xd9, 0x7b, 0x3e, 0x72, 0x7c, 0x8e, 0x3d, 0x9a, 0xa6, 0x4d, 0xbd, 0x59, 0x51, 0xc6, 0x3d, 0xfb, 0xeb, 0xa1, 0xbd, 0x5d, 0xe7, 0x63, 0x3d, 0xbc, 0xe6, 0x24, 0x3e, 0x7d, 0x56, 0x0d, 0x3e, 0x88, 0x3f, 0x3d, 0x3e, 0x5c, 0x84, 0x16, 0x3e, 0xb9, 0x10, 0xb2, 0xbe, 0xa1, 0xec, 0x88, 0x3c, 0xd2, 0xbd, 0x85, 0x3d, 0xe1, 0x8c, 0x60, 0xbe, 0x66, 0x55, 0x48, 0x3e, 0x17, 0x32, 0x52, 0xbe, 0xe3, 0xa1, 0xa9, 0x3d, 0x6b, 0x6f, 0xb6, 0x3b, 0xe5, 0xf5, 0x47, 0xbe, 0x8a, 0xf5, 0x01, 0x3e, 0x2e, 0x0f, 0x97, 0xbe, 0x0b, 0x8d, 0x2a, 0x3d, 0x0b, 0x25, 0x0f, 0xbd, 0x81, 0x8e, 0x53, 0x3d, 0x5b, 0x6f, 0xb2, 0xbc, 0xe1, 0xeb, 0x26, 0xbe, 0xd0, 0x90, 0x17, 0xbe, 0x70, 0x95, 0xd2, 0x3d, 0xbd, 0x0b, 0xb5, 0xbd, 0x7e, 0xd1, 0xca, 0x3d, 0x55, 0x4a, 0x0d, 0x3e, 0x6f, 0xd5, 0x07, 0x3e, 0x2d, 0xd5, 0xb7, 0x3d, 0xee, 0x99, 0x86, 0x3e, 0x82, 0x8a, 0x6d, 0xbd, 0x32, 0x29, 0x19, 0xbe, 0xcb, 0xaf, 0x85, 0xbd, 0x76, 0xf8, 0x0c, 0xbd, 0x45, 0x83, 0x94, 0xbe, 0x3a, 0x2e, 0x8f, 0xbe, 0x1b, 0x62, 0x90, 0x3d, 0x9b, 0x53, 0xf8, 0x3d, 0xba, 0xcd, 0xd8, 0xbc, 0x50, 0xb4, 0xe3, 0x3d, 0xb2, 0x3c, 0xf7, 0x3d, 0x7b, 0x60, 0x1a, 0x3e, 0x2a, 0x22, 0x16, 0x3e, 0xf1, 0x7f, 0xac, 0xbd, 0xda, 0x50, 0x2a, 0xbd, 0x3d, 0xcb, 0x67, 0xbd, 0xc2, 0x0d, 0x6b, 0x3d, 0x6e, 0x42, 0x47, 0x3e, 0x47, 0x5e, 0x15, 0x3d, 0x74, 0xde, 0xfc, 0x3d, 0x89, 0x3f, 0x05, 0xbd, 0x7e, 0x76, 0x1f, 0x3e, 0xfe, 0xef, 0x3f, 0x3e, 0x10, 0x2a, 0xb9, 0x3c, 0xea, 0xf6, 0x1e, 0x3d, 0x91, 0xf4, 0x97, 0xbd, 0xf2, 0xf4, 0x00, 0x3d, 0x05, 0x33, 0xa8, 0xbd, 0x50, 0x19, 0xed, 0xbd, 0xcf, 0x5d, 0xf1, 0xbd, 0x0c, 0xfd, 0x63, 0x3d, 0x56, 0x74, 0x01, 0x3d, 0xd3, 0x47, 0xa8, 0x3b, 0xf0, 0x6a, 0x94, 0xbd, 0x45, 0x4e, 0xab, 0xbd, 0x81, 0x95, 0xad, 0x3b, 0x2c, 0x23, 0x96, 0x3d, 0x8c, 0x6b, 0x65, 0xbc, 0x33, 0x6d, 0x0f, 0xbe, 0x32, 0x3b, 0xdb, 0x3d, 0x0b, 0x61, 0xed, 0xbd, 0x6c, 0x73, 0x51, 0xbc, 0xf5, 0x09, 0x45, 0xbe, 0x9f, 0x3a, 0x25, 0xbe, 0x4c, 0xb2, 0x8e, 0x3c, 0x29, 0x9d, 0xcb, 0x3d, 0x15, 0x9d, 0xee, 0xbd, 0x8d, 0x7e, 0x8a, 0xbb, 0xb4, 0xe1, 0x63, 0xbd, 0xa0, 0x29, 0x43, 0xbe, 0xd4, 0x13, 0x58, 0xbd, 0xc0, 0xc4, 0x45, 0xbe, 0x8c, 0x55, 0xef, 0x3d, 0x7d, 0x39, 0x71, 0xbd, 0xbe, 0x40, 0x55, 0xbe, 0xef, 0x2c, 0x00, 0x3e, 0xcc, 0xf1, 0x80, 0xbe, 0x6e, 0x36, 0x3d, 0xbe, 0x63, 0xf1, 0x1b, 0x3c, 0x57, 0xba, 0xc3, 0xbc, 0xd9, 0x85, 0xf5, 0x3d, 0xcc, 0x9d, 0xc7, 0xbd, 0x17, 0xa9, 0xd6, 0xbc, 0x8f, 0x5d, 0x42, 0xbe, 0x15, 0x5d, 0x68, 0xbc, 0x2e, 0x4f, 0xe0, 0xbd, 0xe7, 0xa5, 0x65, 0x3d, 0x55, 0x5f, 0x62, 0x3d, 0xef, 0x49, 0x05, 0x3e, 0xcc, 0x6b, 0x39, 0x3e, 0xba, 0x31, 0x2d, 0xbe, 0x10, 0x26, 0x0e, 0xbe, 0x52, 0xe0, 0xcf, 0x3d, 0xde, 0x7e, 0x3f, 0xbd, 0x35, 0xb8, 0x68, 0xbd, 0x03, 0x46, 0x10, 0x3d, 0xf5, 0x7d, 0x2f, 0xbc, 0x0f, 0xe0, 0x22, 0xbc, 0x73, 0xfe, 0x40, 0x3e, 0x34, 0xea, 0x32, 0xbd, 0xca, 0x4e, 0xf8, 0xbd, 0xb9, 0xf7, 0x21, 0xbe, 0x4a, 0x20, 0xf7, 0xbd, 0x0a, 0xc7, 0x4a, 0x3d, 0xf3, 0x15, 0x7e, 0xbe, 0x4f, 0xc6, 0x2e, 0xbe, 0x88, 0xf5, 0xc2, 0xbd, 0x4e, 0x4f, 0x04, 0x3e, 0x3c, 0xd3, 0xa7, 0xbc, 0x44, 0xbf, 0x39, 0x3d, 0xe0, 0x41, 0x36, 0xbe, 0x9f, 0x01, 0x5b, 0xbe, 0xe6, 0x63, 0x01, 0x3d, 0x33, 0xb6, 0x3c, 0xbe, 0x37, 0x20, 0x18, 0xbe, 0xac, 0xf8, 0x1f, 0x3c, 0xb1, 0x64, 0x11, 0x3d, 0xba, 0xab, 0x9f, 0x3d, 0xaf, 0x3b, 0x33, 0x3e, 0x7c, 0xa2, 0x32, 0x3e, 0x53, 0xe1, 0xef, 0x3d, 0x99, 0x16, 0x2c, 0x3e, 0x89, 0xb6, 0xd7, 0xbd, 0x66, 0xee, 0xc5, 0x3c, 0x6a, 0xcf, 0x8a, 0xbc, 0xe5, 0x96, 0x27, 0xbe, 0x6c, 0x6e, 0x6f, 0xbb, 0x78, 0x43, 0x47, 0x3d, 0xaa, 0x88, 0x02, 0xbd, 0xa3, 0x2b, 0x55, 0xbd, 0xd5, 0x1d, 0x31, 0xbd, 0x00, 0xfd, 0x1d, 0xbe, 0x7e, 0xf8, 0x46, 0xbd, 0xbb, 0x38, 0x0b, 0xbd, 0x5c, 0xd5, 0xf7, 0xbd, 0x0d, 0x55, 0xc4, 0x3d, 0x3f, 0xdc, 0x2e, 0xbd, 0xa8, 0xf7, 0x27, 0xbe, 0xf1, 0x43, 0x01, 0xbe, 0xd0, 0xe3, 0x1c, 0xbd, 0xf2, 0x4c, 0x0a, 0xbe, 0x74, 0x21, 0xc6, 0x3d, 0xa8, 0x79, 0x03, 0x3e, 0x94, 0x47, 0x42, 0xbe, 0x0a, 0x5f, 0x04, 0xbd, 0x4c, 0x3c, 0x1c, 0xbe, 0x0c, 0x37, 0x3b, 0xbe, 0x06, 0xb3, 0x2b, 0xbe, 0x50, 0x87, 0x56, 0xbe, 0x2f, 0x0b, 0x4e, 0x3d, 0x1c, 0x81, 0x32, 0x3e, 0xad, 0x3f, 0x92, 0x3d, 0x02, 0xad, 0x2d, 0xbe, 0x96, 0xc3, 0x12, 0x3d, 0x1f, 0xca, 0x75, 0x3d, 0xf2, 0x1d, 0x94, 0xbe, 0x60, 0xad, 0x05, 0x3d, 0x29, 0xf1, 0xb6, 0xbd, 0xe5, 0x83, 0x95, 0x3d, 0xc3, 0x13, 0x0f, 0xbd, 0xd9, 0x4d, 0x57, 0xbd, 0x79, 0xc7, 0xb4, 0x3d, 0x54, 0xbc, 0xa2, 0x3d, 0xdd, 0xbc, 0xcf, 0xbd, 0xf2, 0xd2, 0x4d, 0x3d, 0xef, 0x15, 0xb1, 0x3d, 0x40, 0x4d, 0x1f, 0xbe, 0x25, 0x7e, 0xd8, 0xbd, 0x54, 0x01, 0x3c, 0x3d, 0x58, 0xe7, 0xbb, 0x3d, 0x37, 0xc8, 0xce, 0x3c, 0xd4, 0xa8, 0x90, 0x3b, 0x3d, 0x60, 0xf9, 0x3d, 0x56, 0x90, 0x00, 0x3b, 0x9d, 0x59, 0x72, 0xbd, 0xe0, 0x9d, 0xa7, 0x3c, 0x7b, 0x3b, 0x65, 0xbe, 0x45, 0xae, 0x43, 0xbd, 0xa5, 0xf5, 0xdc, 0xbc, 0xe8, 0x23, 0x1b, 0x3d, 0x24, 0x0c, 0x45, 0xbe, 0x0f, 0x17, 0x9d, 0xbd, 0x71, 0xb1, 0x3f, 0xbe, 0xd7, 0x6c, 0x25, 0x3e, 0x11, 0x4d, 0x96, 0x3d, 0xba, 0xba, 0x79, 0xbd, 0xb9, 0x64, 0x08, 0xbe, 0xb5, 0x9a, 0x15, 0x3d, 0x7e, 0x06, 0xf9, 0xbd, 0x92, 0x7c, 0x5d, 0xbe, 0x7d, 0x2b, 0x62, 0x3c, 0xb5, 0x14, 0x2f, 0x3d, 0xfd, 0xa2, 0xf5, 0xbd, 0xea, 0x06, 0x43, 0x3e, 0x1e, 0x62, 0xf4, 0xba, 0xcd, 0xe4, 0x05, 0x3e, 0x41, 0xf0, 0x92, 0xbd, 0xc7, 0x40, 0x19, 0x3d, 0x70, 0xfb, 0x9f, 0x3d, 0xff, 0xcf, 0x5a, 0xbd, 0x66, 0x44, 0x0a, 0x3d, 0xd6, 0x28, 0x62, 0xbe, 0xdf, 0xab, 0x50, 0xbe, 0xef, 0x0d, 0x45, 0x3e, 0x7e, 0x32, 0x1f, 0xbe, 0xaf, 0xde, 0xcd, 0xbd, 0xd5, 0xb2, 0xb0, 0xbd, 0x7b, 0x3f, 0x9f, 0x3d, 0x5f, 0x8e, 0x01, 0x3d, 0x6d, 0xf7, 0x9e, 0x3d, 0x6f, 0x39, 0x36, 0x3e, 0x8d, 0x93, 0xe4, 0x3c, 0x9d, 0x23, 0x40, 0x3e, 0xfb, 0xd6, 0x3c, 0xbc, 0xaf, 0x4b, 0x4a, 0x3e, 0x51, 0xa8, 0x00, 0x3d, 0x24, 0x50, 0xb5, 0xbd, 0x48, 0x6e, 0xb5, 0xbc, 0xe5, 0xa7, 0x5d, 0x3c, 0xf8, 0x01, 0x83, 0xbd, 0x04, 0x0a, 0x4a, 0xbd, 0xff, 0xec, 0xa3, 0xbd, 0x19, 0xa4, 0x3a, 0x3e, 0xc4, 0x1b, 0x74, 0xbe, 0x16, 0x5d, 0xa9, 0xbe, 0xf2, 0x60, 0x08, 0x3e, 0xed, 0x16, 0x02, 0x3d, 0x8b, 0x8a, 0xef, 0xbd, 0x74, 0xd1, 0x29, 0x3e, 0x63, 0x52, 0x94, 0xbc, 0x2b, 0xaf, 0x33, 0xbe, 0xf9, 0x29, 0xbf, 0x3d, 0x68, 0x10, 0x1d, 0xbe, 0xbf, 0x29, 0xa6, 0x3c, 0x5e, 0x27, 0x53, 0x3c, 0x96, 0x9d, 0x95, 0x3c, 0xfe, 0x86, 0x23, 0x3c, 0x09, 0xce, 0x03, 0xbe, 0xa8, 0xd6, 0xbf, 0xbd, 0xc1, 0x61, 0xd8, 0xbd, 0x1b, 0xf0, 0x74, 0x3c, 0x80, 0x78, 0x36, 0xbd, 0x5d, 0xff, 0x3d, 0xbe, 0xd9, 0x3e, 0x56, 0xbe, 0x0a, 0x75, 0x6f, 0xbe, 0xb1, 0x81, 0xb8, 0x3d, 0xe4, 0x61, 0x3e, 0xbe, 0xe7, 0x1e, 0x41, 0xbe, 0x69, 0xcf, 0xa1, 0xbe, 0x82, 0x89, 0x11, 0x3d, 0xda, 0x49, 0x67, 0xbe, 0xd5, 0x54, 0xad, 0xbd, 0xb9, 0xac, 0x9d, 0x3c, 0x9a, 0x0c, 0x7f, 0x3d, 0xe6, 0x20, 0x2e, 0xbd, 0x4f, 0x5b, 0x78, 0xbd, 0x06, 0x24, 0x72, 0xbe, 0x1a, 0xda, 0x9a, 0xbd, 0xf1, 0x6e, 0x30, 0x3d, 0xea, 0x0a, 0xcf, 0x3c, 0xd5, 0x62, 0xf4, 0x3d, 0x9d, 0x95, 0x35, 0xbe, 0x1c, 0x0d, 0x88, 0xbe, 0x11, 0xc6, 0x3b, 0x3e, 0x31, 0xa3, 0x33, 0x3d, 0xe8, 0xf3, 0xec, 0x3d, 0xd3, 0xed, 0x47, 0x3b, 0xf0, 0x21, 0xf6, 0x3d, 0x7e, 0x38, 0xa6, 0xbe, 0xd6, 0x8c, 0x0a, 0xbe, 0x95, 0x3c, 0x98, 0x3d, 0x99, 0xc1, 0xa8, 0x3c, 0x70, 0x2d, 0x2a, 0xbe, 0x90, 0x49, 0x82, 0x3d, 0x09, 0xbb, 0x13, 0x3d, 0xdb, 0x85, 0x0f, 0x3d, 0xc7, 0xfa, 0x98, 0xbe, 0xbb, 0x98, 0xc2, 0xbd, 0x1f, 0x55, 0xe4, 0xbc, 0x60, 0xeb, 0x2f, 0xbc, 0x8d, 0x03, 0x42, 0xbe, 0x55, 0x3b, 0x85, 0x3e, 0x1f, 0x3f, 0x88, 0xbe, 0x57, 0x6d, 0x23, 0xbd, 0x72, 0x2d, 0x6d, 0x3d, 0x2e, 0x5f, 0xa6, 0xbd, 0x24, 0xe5, 0xb6, 0xbd, 0xd2, 0x06, 0xb0, 0xbe, 0xee, 0x7e, 0x9b, 0xbe, 0xe3, 0x4c, 0x31, 0x3e, 0xb8, 0xf9, 0xed, 0x3d, 0xe3, 0x34, 0xb1, 0xbe, 0xe9, 0xad, 0x33, 0xbe, 0x78, 0xb9, 0x43, 0xbe, 0x80, 0x0e, 0x82, 0xbd, 0x9e, 0xeb, 0xde, 0xbc, 0x70, 0xe9, 0xbb, 0xbd, 0xe5, 0xac, 0x87, 0xbe, 0x6f, 0xc7, 0x51, 0xbd, 0x7f, 0xbc, 0xf8, 0x3b, 0x76, 0x67, 0x27, 0xbe, 0xe8, 0x69, 0xf8, 0xbd, 0x15, 0x5b, 0x3c, 0xbc, 0x04, 0xbe, 0xa5, 0xbe, 0x65, 0x17, 0xa0, 0xbd, 0x11, 0xc7, 0x3f, 0xbe, 0xbf, 0xcf, 0x4d, 0x3d, 0x20, 0x41, 0xb6, 0xbd, 0xb4, 0x2b, 0x87, 0xbe, 0xd3, 0xaa, 0x8c, 0xbd, 0x21, 0xdf, 0x0d, 0xbe, 0x41, 0x7d, 0x1a, 0xbe, 0x4f, 0xa9, 0x22, 0x3e, 0x7e, 0xcf, 0x85, 0x3d, 0xd6, 0xb3, 0x5c, 0x3d, 0xd2, 0x54, 0xd5, 0xbc, 0x07, 0x7b, 0x84, 0x3c, 0x8b, 0x50, 0xee, 0x3c, 0x8c, 0x82, 0x2b, 0xbd, 0x8e, 0xda, 0xd5, 0xbd, 0x31, 0x91, 0xa4, 0x3e, 0x0f, 0xb0, 0x8f, 0x3e, 0x44, 0xbe, 0x52, 0x3e, 0x81, 0x8a, 0x4e, 0x3e, 0xbd, 0xda, 0x17, 0x3e, 0x89, 0x34, 0x33, 0xbe, 0x62, 0x0f, 0x1b, 0xbd, 0x2e, 0xa6, 0x46, 0xbd, 0xd5, 0x2a, 0x50, 0xbe, 0x22, 0xff, 0x5c, 0xbe, 0x4c, 0xa4, 0x53, 0xbe, 0x53, 0xfd, 0xa4, 0x3c, 0x87, 0x95, 0x1d, 0x3d, 0x83, 0x8e, 0x80, 0x3d, 0x34, 0x95, 0x4c, 0x3d, 0x3d, 0x43, 0xbf, 0xbd, 0x10, 0xfd, 0xd9, 0x3d, 0xe0, 0x8d, 0x5d, 0xbd, 0x57, 0xb0, 0x2c, 0x3a, 0xec, 0x08, 0x65, 0xbe, 0xc5, 0x82, 0x4e, 0xbd, 0xf3, 0x83, 0x45, 0x3e, 0x9f, 0xc6, 0xd0, 0x3d, 0xe7, 0xf1, 0x1a, 0x3e, 0xde, 0xc2, 0x10, 0x3e, 0xf3, 0xc5, 0x93, 0xbd, 0x69, 0x21, 0x4d, 0x3d, 0xa0, 0x31, 0x47, 0x3e, 0x67, 0x9d, 0x8f, 0xbc, 0x2d, 0x42, 0x98, 0x3c, 0x48, 0xba, 0x7a, 0x3c, 0x4a, 0x1a, 0x5e, 0xbe, 0xa5, 0x2f, 0x3f, 0x3d, 0x33, 0x54, 0x9b, 0xbe, 0x32, 0x15, 0x96, 0xbb, 0xcd, 0xa3, 0x5e, 0x3d, 0xc8, 0x1b, 0xfc, 0xbd, 0x85, 0x4d, 0x07, 0x3c, 0x2d, 0x20, 0x81, 0xbd, 0xee, 0x52, 0x18, 0x3d, 0x3c, 0xc4, 0xc1, 0x3c, 0xbb, 0x27, 0x3d, 0xbe, 0xb0, 0x83, 0x09, 0xbe, 0x10, 0x93, 0xdd, 0xbd, 0xe5, 0x9c, 0x91, 0xbe, 0x4a, 0x13, 0xf0, 0xbd, 0xe8, 0x92, 0x51, 0xbe, 0x8f, 0x65, 0x3a, 0xbe, 0x1c, 0x3d, 0x3e, 0x3d, 0xb1, 0xbe, 0xa3, 0xbe, 0xe3, 0xab, 0x3e, 0x3e, 0x4f, 0xd4, 0x87, 0x3c, 0xee, 0xeb, 0x3b, 0xbd, 0x8b, 0xc7, 0xc9, 0xbd, 0xaa, 0x29, 0x5e, 0xbe, 0x50, 0x55, 0xed, 0xbd, 0xfd, 0x87, 0x92, 0x3e, 0x7a, 0x95, 0xcb, 0x3c, 0x29, 0xef, 0xda, 0x3d, 0xdd, 0x1e, 0xf2, 0x3d, 0xe4, 0x87, 0x5a, 0xbc, 0x2e, 0xbd, 0x7d, 0xbe, 0x32, 0x6c, 0xd7, 0x3d, 0x8c, 0xf4, 0x70, 0xbe, 0x59, 0xe8, 0x87, 0x3e, 0x16, 0x67, 0x35, 0xbe, 0x9f, 0x4b, 0x10, 0x3e, 0xf7, 0x72, 0xe6, 0x3d, 0xcc, 0xae, 0x32, 0xbd, 0x31, 0x44, 0x81, 0xbc, 0xae, 0xdc, 0x1f, 0xbe, 0x2e, 0x36, 0xc3, 0xbd, 0xdd, 0x12, 0xd1, 0xbd, 0x50, 0xaa, 0xa7, 0xbe, 0x04, 0xef, 0x92, 0xbd, 0x90, 0xb8, 0x15, 0xbe, 0x07, 0x10, 0xae, 0x3d, 0x81, 0x6b, 0x28, 0xbe, 0xf5, 0x74, 0x88, 0x3d, 0xc8, 0x2b, 0x5c, 0xbe, 0xef, 0x6f, 0x55, 0x3d, 0x18, 0x68, 0x8b, 0xbd, 0xc9, 0xb2, 0x8a, 0x3e, 0x08, 0xce, 0x2a, 0x3e, 0x1e, 0x3c, 0xb6, 0xbe, 0x80, 0x5b, 0x62, 0x3e, 0xf3, 0x66, 0x10, 0x3e, 0x75, 0xbe, 0xd4, 0x3e, 0xc3, 0xd1, 0xeb, 0x3d, 0x6b, 0xe9, 0x03, 0xbe, 0x9e, 0xa5, 0x34, 0x3e, 0xb7, 0x80, 0xff, 0xbd, 0xfe, 0x7e, 0xb2, 0xbd, 0x29, 0x5e, 0xa2, 0x3d, 0xcf, 0x4f, 0x1c, 0x3e, 0xd9, 0xda, 0x3f, 0xbd, 0xce, 0xac, 0x63, 0x3e, 0x5b, 0x1c, 0x9c, 0x3b, 0xd6, 0xe7, 0x8d, 0xbe, 0x6c, 0x67, 0x53, 0x3c, 0x3b, 0x9d, 0x94, 0xbd, 0x80, 0xae, 0xae, 0xbd, 0x41, 0x2f, 0xa8, 0x3d, 0xb7, 0x18, 0x10, 0x3e, 0x53, 0xe4, 0x56, 0xbe, 0x6a, 0x8f, 0x2b, 0xbe, 0xc8, 0xae, 0x90, 0xbd, 0x59, 0x9c, 0xaa, 0xbc, 0x94, 0x18, 0x51, 0x3d, 0xe5, 0xc4, 0x8d, 0x3b, 0x9c, 0x74, 0xa0, 0xbe, 0xd2, 0x0b, 0xca, 0x3d, 0x44, 0x11, 0x0b, 0x3d, 0xa8, 0x75, 0x26, 0x3e, 0x77, 0x6d, 0x90, 0xbd, 0xdc, 0x41, 0x71, 0xbe, 0x68, 0xb0, 0x80, 0x3d, 0x0d, 0x3b, 0x85, 0xbc, 0x13, 0x09, 0xb2, 0xbc, 0x42, 0x57, 0xba, 0xbd, 0xea, 0xce, 0xec, 0xbd, 0x31, 0xa5, 0x5b, 0x3e, 0xdf, 0x9d, 0x82, 0xbe, 0x71, 0xd7, 0x87, 0xbe, 0xa5, 0x87, 0xb2, 0xbd, 0xd1, 0x5a, 0xd9, 0xbd, 0xae, 0xe6, 0xbe, 0xbd, 0x22, 0xb8, 0x11, 0x3e, 0x77, 0xd8, 0x2a, 0xbd, 0xc2, 0xd4, 0xfe, 0x3d, 0x02, 0x55, 0xc0, 0x3d, 0x00, 0xe9, 0xd1, 0xbd, 0x06, 0xe0, 0x0a, 0xbe, 0x9c, 0x8d, 0x20, 0x3e, 0x7f, 0xff, 0x1c, 0x3e, 0xb2, 0x8b, 0x44, 0xbe, 0xe8, 0xb7, 0x99, 0xbd, 0x7f, 0xb9, 0x89, 0xbd, 0x8e, 0x3a, 0x2c, 0x3d, 0xb8, 0x7f, 0x82, 0xbd, 0x98, 0x93, 0x93, 0x3e, 0x77, 0xce, 0xeb, 0x3d, 0x2c, 0xf2, 0xd6, 0xbc, 0x9b, 0xa0, 0x80, 0x3d, 0x0b, 0x11, 0xc0, 0x3d, 0x30, 0xca, 0x85, 0x3d, 0xcf, 0xe7, 0x4f, 0xbd, 0x54, 0xdb, 0x7d, 0x3d, 0xd9, 0x92, 0x36, 0x3e, 0xb9, 0x0e, 0x32, 0x3e, 0x57, 0xb4, 0xf0, 0xbd, 0x24, 0x41, 0xb0, 0x3a, 0x73, 0x14, 0x04, 0x3e, 0x3f, 0xde, 0x44, 0x3e, 0x23, 0x03, 0xa6, 0xbe, 0x4c, 0xd5, 0x9a, 0xbd, 0x23, 0x72, 0xea, 0x3d, 0x96, 0x21, 0x62, 0xbe, 0x2e, 0x15, 0x6f, 0x3e, 0xe0, 0x06, 0x0a, 0x3e, 0x3a, 0xbc, 0xf2, 0xbd, 0x64, 0x97, 0x87, 0x3e, 0xa5, 0x63, 0xc2, 0x3d, 0x25, 0xbd, 0x8a, 0xbd, 0xbc, 0x4e, 0x1b, 0x3e, 0x8f, 0xd0, 0x95, 0xbe, 0xfa, 0x60, 0x6a, 0xbe, 0xf7, 0x94, 0x62, 0xba, 0x20, 0x5f, 0x81, 0x3d, 0xda, 0x24, 0xf7, 0xbd, 0x1c, 0xc3, 0xcd, 0x3d, 0x63, 0x2d, 0x67, 0x3d, 0xf4, 0xf0, 0xcc, 0xbd, 0xc7, 0x50, 0x1b, 0xbe, 0x1a, 0x74, 0x00, 0xbe, 0x50, 0x60, 0x29, 0xbd, 0xd7, 0x42, 0x67, 0x3e, 0xb2, 0xd9, 0xbd, 0x3c, 0xc8, 0x60, 0x19, 0xbe, 0xf0, 0x2c, 0x21, 0x3d, 0x66, 0xa7, 0xb5, 0xbd, 0xbf, 0x38, 0xb6, 0x3d, 0xce, 0x04, 0x11, 0x3e, 0xbf, 0x6a, 0x07, 0x3e, 0x60, 0x46, 0x7f, 0xbd, 0xb9, 0xec, 0x39, 0x3e, 0x33, 0xc7, 0x7c, 0xbe, 0x19, 0xcf, 0xb6, 0xbe, 0x89, 0x03, 0x7d, 0xbe, 0xe6, 0x21, 0x8a, 0x3d, 0x96, 0x99, 0x8a, 0x3b, 0x2c, 0x0b, 0x06, 0x3e, 0xac, 0x78, 0x06, 0xbe, 0x43, 0x36, 0x05, 0x3d, 0x26, 0x82, 0x78, 0xba, 0x14, 0x51, 0x23, 0xbe, 0xb2, 0x98, 0x38, 0xbe, 0x11, 0xaa, 0x2a, 0x3e, 0x32, 0x07, 0xce, 0x3c, 0x5d, 0x46, 0x01, 0xbf, 0x57, 0x36, 0x75, 0x3d, 0x93, 0x02, 0xdf, 0xbc, 0x75, 0xa7, 0xc0, 0x3b, 0xfd, 0x9e, 0x22, 0x3d, 0x39, 0xe6, 0x6d, 0x3e, 0xe0, 0x9d, 0x8a, 0xbd, 0xaf, 0xd8, 0xa3, 0xbe, 0x53, 0x9c, 0xdf, 0xbd, 0x5c, 0x08, 0x5f, 0xbe, 0x9d, 0x26, 0x66, 0x3e, 0x89, 0xe4, 0x1d, 0x3e, 0x04, 0x63, 0x2d, 0xbe, 0x2a, 0xe1, 0x15, 0xbd, 0x4b, 0x3a, 0xeb, 0x3d, 0xb5, 0x56, 0x4d, 0x3d, 0xa5, 0xf9, 0x4b, 0x3e, 0xc8, 0x6f, 0x21, 0xbe, 0xda, 0x8b, 0x77, 0x3e, 0x3a, 0x58, 0x3b, 0xbe, 0xef, 0x8c, 0xa8, 0x3d, 0x8a, 0xf7, 0x02, 0x3e, 0xf2, 0x0d, 0xb8, 0xbc, 0x25, 0x98, 0x98, 0x3e, 0x94, 0x00, 0x08, 0x3e, 0x34, 0x61, 0x65, 0xbe, 0x64, 0x64, 0xc1, 0x3d, 0x45, 0x3d, 0x92, 0xbd, 0x56, 0xfc, 0x14, 0xbe, 0xa4, 0xeb, 0x04, 0xbd, 0x42, 0x0c, 0x02, 0xbe, 0xda, 0x59, 0x82, 0xbd, 0x36, 0x53, 0xb0, 0xbd, 0x9c, 0x0c, 0x6b, 0x3d, 0xe2, 0xba, 0x19, 0xbe, 0xfd, 0x2a, 0x47, 0x3e, 0xa4, 0x68, 0x3b, 0x3d, 0xc5, 0xf7, 0x53, 0x3e, 0xa7, 0x30, 0xcd, 0xbe, 0xd2, 0xd0, 0x43, 0xbe, 0x98, 0x03, 0x9c, 0x3d, 0xe4, 0x70, 0x94, 0xbd, 0xdb, 0x04, 0x96, 0xbe, 0x6e, 0x4d, 0xeb, 0xbd, 0x59, 0x1f, 0x7e, 0xbe, 0x5f, 0x81, 0xbe, 0x3e, 0xc4, 0xe5, 0xa0, 0x3d, 0x2f, 0x37, 0x73, 0xbe, 0x98, 0x8c, 0x4f, 0x3d, 0x42, 0x18, 0x74, 0x3d, 0x88, 0x13, 0x3b, 0xbe, 0x79, 0x3a, 0x3e, 0xbc, 0x7e, 0x36, 0x36, 0xbe, 0xa7, 0xfb, 0x3f, 0x3e, 0xb5, 0xfa, 0x46, 0x3d, 0xcc, 0x3e, 0xcb, 0xbd, 0x8a, 0xab, 0x04, 0xbd, 0x8f, 0xa9, 0x26, 0xbe, 0xa7, 0x39, 0xd8, 0xbc, 0xd3, 0xa3, 0xb3, 0x3d, 0x98, 0xe7, 0xda, 0x3d, 0x85, 0xbc, 0x31, 0x3e, 0xd1, 0xf1, 0xdb, 0xbd, 0xe5, 0x0a, 0x06, 0x3e, 0x05, 0x94, 0x0c, 0xbe, 0x68, 0xb0, 0x7f, 0x3e, 0x40, 0xc0, 0x0e, 0x3e, 0x3e, 0x37, 0x80, 0xbd, 0xd2, 0x89, 0x0f, 0x3c, 0xd0, 0x7d, 0x7a, 0x3d, 0x3a, 0xd5, 0x16, 0xbe, 0x97, 0xcb, 0x1e, 0x3d, 0xa6, 0x09, 0xab, 0xbd, 0x77, 0xd4, 0xc2, 0xbc, 0x47, 0x00, 0x07, 0x3c, 0xc8, 0x28, 0xdd, 0xbd, 0x14, 0xee, 0x7a, 0xbe, 0xd6, 0x4a, 0xe4, 0x3d, 0xe6, 0x1b, 0xe1, 0xbd, 0x6e, 0xdc, 0x49, 0x3e, 0x4b, 0x98, 0x3d, 0xbc, 0x44, 0xb8, 0x57, 0x3c, 0xda, 0xe9, 0xec, 0x3c, 0x0a, 0x33, 0x07, 0xbd, 0x77, 0xe5, 0x93, 0xbe, 0x83, 0xad, 0x6e, 0x3e, 0xe6, 0xf3, 0x15, 0xbe, 0x30, 0xe0, 0x91, 0xbd, 0xc8, 0xc7, 0xba, 0xbd, 0xfc, 0x19, 0xce, 0xbd, 0xcd, 0xe8, 0xc0, 0x3e, 0xa8, 0xdf, 0x0a, 0xbe, 0x55, 0x91, 0x26, 0x3e, 0x3b, 0xc4, 0x01, 0x3e, 0x55, 0x91, 0x36, 0x3d, 0x13, 0x49, 0xfa, 0x3c, 0xaa, 0x65, 0x82, 0xbe, 0x35, 0x76, 0x44, 0xbd, 0xe0, 0x98, 0x19, 0x3d, 0x10, 0xfb, 0x5a, 0xbd, 0xc9, 0x61, 0xd2, 0xbe, 0x7a, 0x49, 0xc5, 0x3d, 0x11, 0x71, 0x3b, 0xbd, 0xb4, 0x95, 0x85, 0xbe, 0x2a, 0x45, 0x75, 0x3d, 0x45, 0x28, 0xa7, 0x3d, 0xf5, 0xbf, 0x20, 0xbe, 0xad, 0xab, 0x07, 0xbe, 0x9b, 0xea, 0x28, 0x3d, 0xc5, 0x6e, 0x9d, 0x3e, 0x0f, 0x3e, 0x1c, 0x3e, 0x1d, 0xed, 0xb8, 0xbd, 0xdd, 0xb0, 0x62, 0x3e, 0x1f, 0x17, 0xff, 0x3d, 0xd8, 0x19, 0xb5, 0xbe, 0xf1, 0x2c, 0xcf, 0x3d, 0xd1, 0x64, 0x85, 0xbe, 0xd2, 0xb6, 0xa5, 0x3d, 0x84, 0x2b, 0x99, 0x3d, 0xe2, 0x8a, 0xae, 0xbd, 0x24, 0xda, 0x4c, 0xbe, 0xcf, 0x03, 0xd4, 0xbd, 0xae, 0x1d, 0xed, 0xbd, 0x98, 0xd9, 0x82, 0x3e, 0x6c, 0xd3, 0x49, 0x3d, 0x91, 0xc4, 0x4b, 0x3e, 0xd5, 0x3d, 0x4f, 0xbd, 0x3d, 0x41, 0xa5, 0x3d, 0x58, 0x57, 0x73, 0xbe, 0xda, 0xb1, 0x9f, 0x3e, 0x82, 0x64, 0xd7, 0x3d, 0x0e, 0x58, 0x02, 0xbe, 0x03, 0xaf, 0x20, 0x3e, 0x95, 0xe2, 0xe8, 0x3c, 0x28, 0x00, 0x05, 0xbd, 0xab, 0x3e, 0xf2, 0xbd, 0xb2, 0x20, 0xc3, 0x3d, 0x48, 0x68, 0x4f, 0x3d, 0x1a, 0xe6, 0x1b, 0x3d, 0x60, 0x30, 0x41, 0xbe, 0x08, 0xb8, 0x19, 0x3e, 0x21, 0x44, 0x96, 0x3d, 0xba, 0x57, 0x4c, 0xbe, 0xb2, 0x0f, 0x05, 0x3e, 0x0f, 0x51, 0xa9, 0xbd, 0xd2, 0xfc, 0x89, 0xbd, 0xd1, 0xaf, 0x51, 0x3e, 0x95, 0x96, 0x7a, 0x3b, 0x00, 0x21, 0x9c, 0xbe, 0x5e, 0x01, 0x35, 0x3e, 0x1f, 0x23, 0x1f, 0x3d, 0x45, 0xa8, 0x3a, 0x3d, 0x7b, 0xba, 0x06, 0xbe, 0xcf, 0xb8, 0x1c, 0xbe, 0x35, 0x42, 0x4a, 0x3e, 0x30, 0xf3, 0x93, 0x3c, 0x64, 0x50, 0xf6, 0x3d, 0x9b, 0xbb, 0x07, 0x3e, 0x4d, 0x9c, 0x67, 0x3d, 0xf0, 0xab, 0xc3, 0xbd, 0x12, 0xaf, 0x65, 0xbe, 0x44, 0x92, 0x7f, 0x3d, 0xe2, 0xf9, 0x91, 0xbd, 0x74, 0x10, 0x85, 0x3d, 0xd1, 0x3a, 0xcd, 0xbe, 0x20, 0xd8, 0xf1, 0x3c, 0x6d, 0xf1, 0x35, 0x3d, 0xee, 0x68, 0x2f, 0xbe, 0xbf, 0x39, 0xf8, 0x3d, 0x01, 0x4b, 0x4a, 0xbb, 0x75, 0xcd, 0x04, 0xbe, 0x06, 0x90, 0x68, 0xbe, 0xb9, 0x1e, 0xb9, 0xbc, 0xe7, 0x94, 0x36, 0xbc, 0x4f, 0x50, 0xc8, 0x3d, 0xf6, 0x8d, 0xf1, 0x3c, 0x96, 0xa6, 0xf8, 0x3d, 0x65, 0x13, 0xab, 0x3e, 0x19, 0x5b, 0x39, 0xbd, 0x65, 0x26, 0xaf, 0xbd, 0xe6, 0x8c, 0x18, 0xbe, 0xab, 0x09, 0x83, 0x3c, 0xf3, 0xf6, 0xcc, 0xbd, 0x98, 0xab, 0x01, 0xbd, 0xfe, 0xe0, 0x9a, 0xbd, 0xa7, 0xac, 0x36, 0xbe, 0x8e, 0xe6, 0x0b, 0x3d, 0x04, 0xd5, 0xab, 0x3d, 0x86, 0x2a, 0x05, 0xbe, 0x28, 0xd1, 0x4b, 0x3e, 0x02, 0xf0, 0x70, 0xbe, 0xd5, 0xad, 0x54, 0xbe, 0xc5, 0x16, 0xd9, 0xbd, 0x9e, 0x9a, 0x48, 0xbe, 0xee, 0x05, 0x82, 0x3a, 0xb9, 0xc2, 0x2f, 0xbe, 0x6f, 0x41, 0xfb, 0xbd, 0x30, 0x34, 0x28, 0xbe, 0x99, 0xc9, 0x86, 0x3c, 0x88, 0x90, 0x92, 0x3c, 0xfb, 0x99, 0x2b, 0x3d, 0xf0, 0x0c, 0x83, 0xbe, 0xcf, 0x33, 0x10, 0x3e, 0x5c, 0x93, 0xcf, 0xbd, 0x31, 0xd8, 0x84, 0x3d, 0xfc, 0xd2, 0x04, 0xbc, 0xc5, 0x36, 0xba, 0xbd, 0x79, 0x21, 0x51, 0xbe, 0x09, 0x23, 0x51, 0xbe, 0x15, 0x93, 0x33, 0xbd, 0x4a, 0x32, 0x49, 0x3e, 0x55, 0x34, 0xc6, 0xbe, 0x81, 0xf2, 0xc5, 0x3d, 0x01, 0x53, 0xb9, 0xbd, 0x9c, 0x28, 0x8d, 0x3d, 0x6f, 0x87, 0x0d, 0xbe, 0x0d, 0x9a, 0xb2, 0x3d, 0x06, 0x55, 0x5b, 0xbd, 0x97, 0x77, 0x82, 0xbe, 0x1c, 0x10, 0x24, 0x3e, 0xc9, 0x07, 0x98, 0xbd, 0xc3, 0xb6, 0xc6, 0xbd, 0x38, 0x9a, 0xac, 0xbd, 0x69, 0x4c, 0x42, 0xbe, 0x85, 0x03, 0x83, 0xbd, 0x6d, 0x42, 0x6f, 0xbe, 0xa6, 0x77, 0x06, 0xbe, 0xa8, 0xa7, 0xf5, 0xbd, 0xc6, 0xea, 0x21, 0xbe, 0xd0, 0xc2, 0x02, 0xbe, 0xf7, 0x15, 0x61, 0x3d, 0xe8, 0x83, 0xeb, 0x3c, 0x46, 0x68, 0x84, 0x3d, 0xd1, 0xec, 0x4d, 0x3e, 0xa4, 0xc5, 0xe0, 0xbd, 0x44, 0x8c, 0xe0, 0xbc, 0x1d, 0x51, 0x68, 0x3d, 0xf7, 0xa0, 0x3d, 0xbe, 0x2a, 0x4d, 0x5d, 0x3b, 0xa5, 0x00, 0xf6, 0x3d, 0x58, 0x3f, 0x4d, 0xbe, 0x40, 0x0d, 0x09, 0xbc, 0x6b, 0xa7, 0xed, 0x3d, 0xf5, 0x4f, 0xc6, 0xbd, 0x8d, 0x76, 0x10, 0xbe, 0x16, 0x05, 0x2b, 0x3b, 0xba, 0x33, 0xb4, 0xbe, 0x0f, 0xd0, 0x60, 0x3e, 0xa8, 0xb8, 0x45, 0xbe, 0x31, 0x98, 0x40, 0x3d, 0xec, 0x2b, 0x24, 0xbe, 0x6a, 0x12, 0x42, 0x3d, 0x73, 0x7b, 0x10, 0xbe, 0x7e, 0x11, 0x18, 0xbe, 0x3f, 0x51, 0x8e, 0x3d, 0xf1, 0x61, 0x63, 0xbd, 0xe2, 0x6f, 0x98, 0x3d, 0xe5, 0x22, 0x0a, 0xbe, 0xaf, 0xdf, 0xe4, 0xbb, 0xf1, 0x6f, 0x11, 0xbe, 0x45, 0xf7, 0x61, 0x3d, 0x0a, 0x9f, 0x94, 0x3d, 0xac, 0x9f, 0xd7, 0xbd, 0xdc, 0x12, 0x12, 0xbe, 0x22, 0x8b, 0xa9, 0xbe, 0x39, 0xb3, 0x98, 0x3c, 0xb8, 0x0a, 0x94, 0xbc, 0x79, 0x80, 0x2f, 0x3d, 0xe8, 0xe3, 0xa2, 0x3c, 0xce, 0x16, 0xbe, 0xbd, 0xb1, 0x91, 0x50, 0xbe, 0x63, 0xa4, 0x79, 0xbe, 0x1d, 0x7a, 0x0c, 0xbd, 0x39, 0x0e, 0xc6, 0x3d, 0x56, 0x5f, 0x21, 0x3e, 0x6c, 0xb1, 0x87, 0xbe, 0xf2, 0xf8, 0x51, 0xbe, 0xb0, 0x72, 0x13, 0xbe, 0x25, 0x8e, 0xa6, 0xbe, 0x54, 0x83, 0x46, 0xbe, 0x5b, 0x39, 0x3d, 0xbe, 0xc1, 0x22, 0x82, 0xbe, 0x68, 0xee, 0x68, 0x3b, 0xc4, 0x47, 0x04, 0x3e, 0x1e, 0x5e, 0x1a, 0x3d, 0xb5, 0x7a, 0xb1, 0x3d, 0x75, 0xf5, 0xa9, 0xbe, 0xbe, 0x35, 0xa4, 0xbd, 0xf8, 0x95, 0xa0, 0xbe, 0xee, 0xfc, 0x7d, 0xbe, 0xf6, 0xb6, 0xb6, 0xbe, 0xc1, 0xdb, 0x0c, 0xbe, 0x40, 0x29, 0x23, 0x3d, 0x81, 0xeb, 0xcb, 0x3d, 0x90, 0x78, 0x43, 0xbe, 0x57, 0xc2, 0x8e, 0x3d, 0xed, 0x45, 0x4d, 0x3d, 0x3e, 0x2e, 0xc3, 0x3d, 0x62, 0xc0, 0x43, 0x3d, 0xfa, 0xc7, 0x68, 0xbe, 0xc7, 0xe0, 0x96, 0x3e, 0xc4, 0xe3, 0x65, 0xbc, 0x72, 0xc3, 0x9d, 0x3d, 0x94, 0x37, 0xac, 0xbd, 0xda, 0xa0, 0xd7, 0xbd, 0x0f, 0xb2, 0x82, 0xbe, 0x8a, 0x3f, 0x28, 0x3e, 0x76, 0x76, 0x98, 0xbe, 0x74, 0xa6, 0x10, 0x3e, 0x8a, 0xd2, 0x56, 0x3e, 0xee, 0x4c, 0x10, 0x3c, 0x35, 0xeb, 0x7f, 0x3d, 0xf4, 0x81, 0x4a, 0x3d, 0xc6, 0x71, 0x0b, 0xbe, 0xd5, 0x86, 0x37, 0x3e, 0x25, 0xe0, 0xb2, 0xbd, 0xf1, 0xdf, 0x7c, 0xbe, 0x2a, 0x6d, 0xcb, 0x3c, 0x75, 0x7d, 0x2a, 0xbd, 0x11, 0x2b, 0xbe, 0xbd, 0x82, 0x02, 0x19, 0xbc, 0xb8, 0x70, 0x25, 0x3e, 0x2f, 0x92, 0xf5, 0x3d, 0x21, 0xe3, 0x7e, 0x3e, 0x88, 0x06, 0x10, 0x3e, 0x10, 0x0b, 0xe1, 0x3b, 0xd5, 0xd3, 0x59, 0x3d, 0x2a, 0x30, 0x1f, 0x3e, 0xbe, 0x34, 0x19, 0x3e, 0x45, 0x74, 0x68, 0x3c, 0x2f, 0xa1, 0x79, 0x3d, 0x9e, 0x75, 0x99, 0xbd, 0xc7, 0x29, 0xde, 0x3d, 0xf2, 0x05, 0x23, 0x3e, 0x03, 0xfc, 0x86, 0x3c, 0x9e, 0x39, 0x70, 0x3c, 0x8c, 0xa9, 0x1a, 0xbe, 0x57, 0x65, 0x4a, 0xbe, 0x65, 0x81, 0x07, 0x3e, 0xb3, 0x56, 0x10, 0x3e, 0x31, 0xe0, 0x28, 0x3d, 0x49, 0x74, 0x9d, 0xbd, 0xce, 0xd7, 0x05, 0x3e, 0x36, 0x51, 0x87, 0xbe, 0x77, 0x14, 0x28, 0x3e, 0x38, 0xca, 0x0a, 0xbe, 0xee, 0xb2, 0x33, 0xbe, 0x56, 0xfe, 0xb6, 0xbd, 0xe5, 0x27, 0x88, 0xbe, 0xa9, 0x75, 0x59, 0x3e, 0x11, 0x5b, 0xaa, 0x3d, 0x7d, 0xab, 0xdb, 0xbd, 0x3c, 0xf1, 0x10, 0x3e, 0x20, 0x08, 0x14, 0x3e, 0xc1, 0x0b, 0x0b, 0x3e, 0x12, 0x05, 0x9e, 0xbc, 0x70, 0x4e, 0xdd, 0xbd, 0xf2, 0x7a, 0x5b, 0x3e, 0x6b, 0xe6, 0x22, 0x3e, 0x6e, 0x1d, 0x6b, 0x3d, 0xc9, 0xca, 0xd9, 0x3d, 0x33, 0x9b, 0x31, 0x3d, 0x76, 0xc5, 0x8d, 0xbd, 0x27, 0xb9, 0x40, 0xbd, 0xb0, 0x8d, 0x94, 0x3e, 0xdf, 0xe8, 0xe1, 0x3d, 0x3f, 0x99, 0x47, 0xbe, 0x38, 0x42, 0xab, 0xbc, 0xf7, 0xd1, 0x39, 0xbd, 0xee, 0x06, 0x9e, 0xbc, 0x2d, 0x00, 0x40, 0x3d, 0xc6, 0x7b, 0x4e, 0xbe, 0xc8, 0xf3, 0x3b, 0x3e, 0x11, 0x2e, 0x26, 0xbd, 0x04, 0xfb, 0x68, 0xbd, 0x59, 0x38, 0xb1, 0xbd, 0xe9, 0xad, 0x04, 0x3e, 0x31, 0x78, 0x2f, 0xbe, 0xf3, 0xe8, 0xa8, 0x3d, 0x58, 0x2a, 0x9f, 0xbd, 0x41, 0xb0, 0x81, 0xbd, 0x9b, 0x17, 0xce, 0x3c, 0xff, 0xa5, 0x9b, 0xbc, 0x55, 0xe3, 0x01, 0xbe, 0x0d, 0x90, 0x7f, 0xbd, 0xb8, 0x0c, 0x9d, 0x3c, 0x49, 0xa6, 0xcb, 0x3d, 0x92, 0xa9, 0x62, 0xbd, 0x16, 0xa2, 0x9f, 0xbc, 0x73, 0x28, 0x9f, 0x3d, 0x70, 0xc8, 0x4b, 0x3e, 0xce, 0xfe, 0x79, 0x3e, 0xb6, 0x14, 0x60, 0x3e, 0x32, 0x74, 0x21, 0xbd, 0x4a, 0x6d, 0x05, 0xbd, 0xe6, 0x3f, 0xfc, 0xbd, 0xbd, 0x1f, 0x40, 0x3d, 0xd5, 0x99, 0x63, 0x3e, 0x3f, 0x05, 0x11, 0x3e, 0x3f, 0xee, 0x24, 0xbe, 0x98, 0x5a, 0x76, 0x3c, 0x94, 0xa5, 0x71, 0xbe, 0xa9, 0x90, 0x0e, 0x3e, 0xcf, 0x3f, 0x06, 0x3e, 0x42, 0x8a, 0x35, 0x3d, 0x44, 0xb2, 0x99, 0xbd, 0xf1, 0xf0, 0xab, 0xbd, 0xe6, 0x35, 0xbf, 0xbd, 0x3b, 0x82, 0xc5, 0x3d, 0xd8, 0xa2, 0x08, 0xbe, 0x50, 0xd9, 0xc2, 0xbc, 0x0c, 0x4b, 0xe0, 0xbd, 0xba, 0xee, 0x6a, 0xbe, 0x3f, 0x3f, 0x87, 0xbc, 0xf0, 0xdc, 0x96, 0x3d, 0x55, 0xde, 0xe2, 0xbc, 0x11, 0x4a, 0x1c, 0x3e, 0x8d, 0x85, 0x5c, 0x3d, 0x31, 0xcd, 0x25, 0x3e, 0x16, 0x59, 0x31, 0x3e, 0x19, 0xf6, 0x83, 0xbd, 0x53, 0xf7, 0xa9, 0xbb, 0x21, 0xb7, 0x53, 0xbd, 0x74, 0x83, 0xbe, 0xbd, 0x36, 0x5a, 0xec, 0xbd, 0x75, 0x53, 0x09, 0xbe, 0x26, 0x2d, 0x04, 0x3e, 0x32, 0x3f, 0x3f, 0xbe, 0xb6, 0x6a, 0x17, 0xbe, 0xbb, 0x1e, 0x92, 0x3c, 0x89, 0x51, 0x56, 0x3d, 0x59, 0x42, 0x11, 0xbd, 0x11, 0xdb, 0x21, 0xbe, 0x68, 0xb2, 0x05, 0xbd, 0x53, 0x9d, 0x79, 0xbd, 0x15, 0x08, 0x99, 0x3d, 0x18, 0x54, 0x95, 0xbe, 0x5d, 0x31, 0x29, 0xbc, 0x6a, 0x90, 0xa8, 0xbe, 0xcc, 0xef, 0x62, 0xbe, 0x81, 0x98, 0xbd, 0xbc, 0x43, 0xa6, 0xc9, 0xbc, 0x6e, 0x86, 0x8e, 0x3e, 0xcc, 0x69, 0xe7, 0xbd, 0x68, 0xe7, 0x96, 0x3c, 0x5a, 0xdf, 0x32, 0x3e, 0x05, 0xe6, 0xb6, 0xbc, 0x0c, 0x5d, 0xe3, 0x3c, 0x77, 0xbc, 0x17, 0xbe, 0x33, 0xf1, 0x0a, 0xbe, 0x2d, 0x23, 0x9e, 0xbe, 0xb2, 0xb3, 0x76, 0xbd, 0x49, 0x05, 0x23, 0xbc, 0x5e, 0x74, 0x4f, 0x3d, 0x2d, 0x12, 0xba, 0x3d, 0xef, 0x8f, 0xf5, 0xbd, 0x1e, 0x52, 0x55, 0xbe, 0x62, 0xf6, 0x4e, 0x3d, 0x20, 0xba, 0xb2, 0x3d, 0xfe, 0xa6, 0xd3, 0xbc, 0x37, 0x28, 0x8d, 0x3d, 0x3a, 0xcb, 0x25, 0x3e, 0xdf, 0xe1, 0xe3, 0x3c, 0x87, 0x0a, 0x28, 0x3e, 0xe6, 0xcc, 0x8a, 0x3e, 0xfd, 0x52, 0x2d, 0xbe, 0xdb, 0x17, 0x1d, 0x3e, 0x7c, 0xa7, 0xbc, 0x3d, 0x35, 0x2e, 0xfc, 0xbd, 0xbf, 0x64, 0x21, 0xbe, 0xe8, 0x97, 0x40, 0xbe, 0x6d, 0xe3, 0x83, 0xbe, 0xd3, 0xa6, 0xe7, 0xbd, 0x98, 0xdc, 0x33, 0xbe, 0x15, 0xb0, 0x05, 0xbd, 0x8c, 0x4b, 0xf5, 0x3d, 0x18, 0xd3, 0x8b, 0xbe, 0x41, 0x00, 0x31, 0xbd, 0xa6, 0x6b, 0x4c, 0xbd, 0x7f, 0xa1, 0xaa, 0xbd, 0x43, 0x9b, 0xc0, 0xbd, 0x42, 0x5d, 0xda, 0xba, 0x07, 0x63, 0xce, 0xbd, 0xbe, 0xf0, 0x35, 0xbe, 0x1b, 0xbb, 0x01, 0x3e, 0x7e, 0x16, 0x5c, 0xbe, 0xe0, 0xae, 0x1a, 0xbe, 0xd3, 0x7a, 0x44, 0x3d, 0x22, 0x4c, 0x04, 0xbe, 0xdd, 0xfb, 0x74, 0xbd, 0xa4, 0x73, 0x5d, 0xbe, 0xef, 0x06, 0x9d, 0xbe, 0x72, 0x53, 0x29, 0x3e, 0xde, 0x40, 0xf6, 0xbc, 0xaa, 0xf3, 0x0f, 0xbd, 0x01, 0x62, 0xa1, 0xbd, 0x40, 0x48, 0x13, 0x3d, 0x75, 0x5a, 0xb2, 0x3d, 0x5b, 0x0e, 0x02, 0x3b, 0xed, 0xb8, 0x3c, 0xbe, 0x64, 0x3b, 0x8e, 0xbe, 0x31, 0x13, 0xaa, 0x3d, 0xe0, 0x36, 0x83, 0x3d, 0xef, 0xa4, 0xbc, 0x3d, 0x6e, 0x3e, 0x1d, 0xbe, 0x76, 0x34, 0x58, 0xbe, 0xf0, 0x8e, 0x0a, 0x3e, 0xd1, 0x05, 0x7a, 0x3d, 0x8c, 0x33, 0x97, 0x3d, 0x63, 0xa7, 0x3c, 0xbe, 0x86, 0x8e, 0x8e, 0xbc, 0x3b, 0xf2, 0xd3, 0xbd, 0x09, 0xb6, 0x06, 0xbe, 0x7f, 0x31, 0xb4, 0xbd, 0xb1, 0x02, 0x7b, 0xbe, 0xcb, 0x39, 0x8a, 0x3d, 0x8b, 0xdf, 0xb2, 0xbc, 0xbe, 0x82, 0xc9, 0x3d, 0xe4, 0x3b, 0xf4, 0x3c, 0xf1, 0xbc, 0xcd, 0xbd, 0x97, 0x1e, 0x30, 0xbe, 0x94, 0x10, 0x45, 0x3d, 0x9c, 0xec, 0xaf, 0x3d, 0xf0, 0x7c, 0x05, 0xbc, 0x4d, 0x53, 0x25, 0xbe, 0xf2, 0xa2, 0x39, 0x3e, 0x70, 0x36, 0x31, 0x3e, 0x97, 0x0b, 0x37, 0xbe, 0x04, 0x9b, 0x80, 0xbe, 0x9f, 0x13, 0x4e, 0xbe, 0xbd, 0xd8, 0x35, 0x3d, 0xa4, 0x6f, 0xed, 0xbb, 0xfd, 0x12, 0x00, 0xbe, 0xf9, 0xfc, 0x9a, 0xbe, 0xe1, 0x34, 0xf0, 0xbd, 0x86, 0xf5, 0x25, 0x3e, 0x5a, 0x24, 0x7a, 0xbe, 0x21, 0xfa, 0x81, 0x3d, 0xd9, 0x9e, 0x09, 0x3e, 0x2a, 0xb1, 0x27, 0xbe, 0xb3, 0x28, 0xf1, 0xbd, 0x09, 0xb0, 0xf6, 0xbd, 0x5e, 0x38, 0x64, 0xbe, 0xa5, 0xe9, 0x02, 0xbd, 0x63, 0x87, 0x52, 0xbe, 0x9e, 0x52, 0x3c, 0xbd, 0xf9, 0xa8, 0x59, 0xbe, 0x75, 0xc6, 0x4c, 0xbd, 0x60, 0xfc, 0x54, 0x3e, 0xca, 0xbb, 0xff, 0xff, 0x04, 0x00, 0x00, 0x00, 0x08, 0x00, 0x00, 0x00, 0xff, 0xff, 0xff, 0xff, 0x80, 0x00, 0x00, 0x00, 0xde, 0xbb, 0xff, 0xff, 0x04, 0x00, 0x00, 0x00, 0x0c, 0x00, 0x00, 0x00, 0xd5, 0x78, 0x70, 0x3e, 0xe0, 0x6b, 0x12, 0xbe, 0x0b, 0xaf, 0xd9, 0xbd, 0xf6, 0xbb, 0xff, 0xff, 0x04, 0x00, 0x00, 0x00, 0x40, 0x00, 0x00, 0x00, 0xe4, 0xec, 0x06, 0x3d, 0x79, 0x65, 0x22, 0x3e, 0x36, 0x06, 0x15, 0x3f, 0x2d, 0xe4, 0x8f, 0xbd, 0x35, 0x54, 0x5f, 0x3c, 0xb5, 0xc6, 0x42, 0xbd, 0xac, 0xca, 0x14, 0xbe, 0x92, 0xcb, 0x12, 0xbf, 0xc2, 0x2f, 0x2b, 0xbe, 0xf6, 0x5f, 0x03, 0xbe, 0x77, 0xfb, 0x9d, 0x3e, 0x01, 0x0c, 0x94, 0x3e, 0x73, 0x28, 0x71, 0x3e, 0x99, 0x7b, 0x26, 0xbe, 0x06, 0x41, 0x8c, 0xbd, 0xbf, 0x62, 0x14, 0xbd, 0x42, 0xbc, 0xff, 0xff, 0x04, 0x00, 0x00, 0x00, 0x00, 0x40, 0x00, 0x00, 0x41, 0xb6, 0x23, 0xbe, 0xf8, 0x22, 0x7c, 0xbe, 0x17, 0x43, 0xe6, 0xbd, 0x6f, 0x14, 0x39, 0xbe, 0x48, 0xd2, 0x50, 0xbd, 0x68, 0x01, 0x34, 0xbe, 0xd8, 0xf3, 0x0d, 0xbe, 0x21, 0xe0, 0x98, 0xbd, 0x9e, 0x17, 0x66, 0xbd, 0x0b, 0x1f, 0x33, 0x3e, 0x02, 0x6a, 0x8f, 0x3e, 0x9a, 0x3d, 0xf4, 0xbd, 0x84, 0xfd, 0x7f, 0xbd, 0x5a, 0xe8, 0xee, 0xbd, 0xce, 0x59, 0x4a, 0xbe, 0xba, 0xc4, 0xf4, 0x3d, 0x56, 0x80, 0x9f, 0xbe, 0x32, 0xa0, 0x37, 0xbe, 0x32, 0x66, 0x6a, 0x3d, 0x19, 0xb8, 0xe1, 0xbd, 0x40, 0xf1, 0x1a, 0xbe, 0x6f, 0x8e, 0xec, 0xbd, 0xce, 0xb5, 0xa9, 0x3c, 0x3f, 0xff, 0x27, 0xbe, 0x90, 0x56, 0x37, 0xbe, 0x51, 0xa6, 0xa0, 0xbd, 0xb2, 0x35, 0x6f, 0xbd, 0x76, 0x3d, 0x2e, 0xbe, 0x3a, 0x71, 0x78, 0xbe, 0x5c, 0xb7, 0xe0, 0xbd, 0xf7, 0xb8, 0xaf, 0xba, 0xac, 0xe2, 0x16, 0x3e, 0xd9, 0x09, 0xbd, 0x3d, 0x57, 0x64, 0xa6, 0xbd, 0xf6, 0x34, 0x00, 0x3e, 0x54, 0xcc, 0x3a, 0xbe, 0xf7, 0x0f, 0xa3, 0x3c, 0xfc, 0xb9, 0x8e, 0xbc, 0xfa, 0x5b, 0xb2, 0x3d, 0x20, 0x4f, 0xda, 0x3d, 0xac, 0x72, 0x3e, 0xbd, 0xf7, 0x4e, 0x3d, 0x3e, 0x29, 0x77, 0xad, 0xbd, 0xde, 0xdc, 0xa6, 0xbc, 0x17, 0x23, 0xe5, 0x3d, 0xc1, 0xfd, 0x04, 0x3e, 0x2a, 0x48, 0x23, 0xbe, 0x7c, 0x86, 0x82, 0xbb, 0xc2, 0x55, 0xf6, 0xbc, 0x1f, 0x7c, 0x5b, 0x3d, 0xcc, 0x5c, 0x89, 0xbd, 0x58, 0x57, 0x07, 0x3e, 0x81, 0xe5, 0x38, 0xbe, 0x41, 0x54, 0x9f, 0x3d, 0x9a, 0xb3, 0x2b, 0x3e, 0xe2, 0xbc, 0x26, 0x3e, 0x0c, 0xe8, 0x7d, 0x3d, 0xba, 0x86, 0x59, 0xbe, 0xe8, 0x9b, 0x1b, 0xbe, 0xef, 0x56, 0x2d, 0x3e, 0x1a, 0x4b, 0x15, 0x3d, 0x01, 0x47, 0x51, 0xbd, 0xa1, 0x4c, 0xd3, 0x3c, 0xb4, 0xc0, 0xc6, 0x3c, 0xd8, 0xae, 0x8b, 0xbe, 0x0f, 0x5e, 0x32, 0xbe, 0x9c, 0x8e, 0xd5, 0x3d, 0xc6, 0xb9, 0x3b, 0xbc, 0xf3, 0x38, 0xb3, 0x3d, 0xc0, 0x26, 0x9f, 0xbd, 0x19, 0xfd, 0x38, 0xbd, 0x41, 0xd0, 0x6e, 0x3d, 0xfa, 0x9a, 0x83, 0xbe, 0xc2, 0x43, 0x78, 0xbc, 0x44, 0xf5, 0x4b, 0x3e, 0x38, 0x7c, 0xbb, 0x3c, 0x14, 0x6f, 0xd5, 0xbd, 0x4f, 0x7c, 0xfa, 0xbc, 0xa3, 0x79, 0x92, 0x3d, 0x2d, 0xe8, 0x99, 0xbd, 0x05, 0x9f, 0x9b, 0xbd, 0xeb, 0x9e, 0x02, 0xbd, 0x1b, 0x62, 0x39, 0xbe, 0x9c, 0x67, 0xb8, 0x3c, 0xee, 0x8b, 0x01, 0xbe, 0x50, 0xdd, 0x1e, 0x3d, 0xbc, 0x1a, 0xc4, 0x3d, 0xe7, 0x16, 0xbd, 0xbd, 0x2e, 0x5b, 0x37, 0xbe, 0xd7, 0x54, 0xb2, 0xbe, 0x40, 0xb1, 0xb7, 0xbd, 0x25, 0x9f, 0x90, 0xbc, 0xa5, 0xf5, 0x64, 0xbe, 0x3c, 0xf8, 0xba, 0xbe, 0x68, 0xce, 0x09, 0x3e, 0xa7, 0xf1, 0x65, 0xbe, 0x39, 0x18, 0xf7, 0xbc, 0x52, 0x31, 0xf6, 0x3a, 0xb9, 0x8b, 0x3a, 0xbd, 0xca, 0x2a, 0x83, 0x3d, 0x7b, 0x5b, 0x0f, 0x3e, 0x4c, 0xdb, 0x21, 0xbd, 0xc6, 0x62, 0x0b, 0xbe, 0x0e, 0x9d, 0x21, 0x3e, 0xc9, 0x07, 0xf1, 0x3d, 0xeb, 0xc7, 0x18, 0x3c, 0x62, 0x2b, 0x5f, 0x3e, 0xbf, 0x0c, 0x1f, 0x3e, 0x82, 0xbf, 0xe5, 0x3c, 0x54, 0xfc, 0x94, 0x3d, 0xa1, 0x9d, 0x14, 0xbd, 0xe7, 0x0a, 0x3b, 0x3d, 0x95, 0x83, 0x9b, 0xbd, 0x5b, 0x6c, 0xfd, 0x3c, 0x3b, 0xd0, 0xd3, 0xbd, 0xc5, 0x94, 0x43, 0xbd, 0x42, 0x7a, 0x39, 0x3d, 0xdf, 0xbd, 0x97, 0xbd, 0x60, 0x86, 0x30, 0x3e, 0x77, 0x5d, 0x38, 0xbe, 0x90, 0x94, 0x44, 0xbd, 0x40, 0xa3, 0x67, 0xba, 0xc5, 0x34, 0x91, 0x3c, 0x52, 0x35, 0x0c, 0xbd, 0x35, 0xb8, 0x42, 0x3d, 0x72, 0xb2, 0xcc, 0xbd, 0x6d, 0x1c, 0xa3, 0xbc, 0x6e, 0x7a, 0xc1, 0x3d, 0xa5, 0x73, 0x3f, 0xbe, 0x4c, 0x8f, 0xe5, 0xbc, 0x9c, 0xeb, 0x12, 0xbe, 0xd2, 0x9b, 0x18, 0xbe, 0x72, 0xf2, 0x0f, 0xbd, 0xee, 0xb4, 0x0c, 0x3d, 0x2c, 0xa2, 0x2f, 0xbe, 0xb4, 0x9d, 0x16, 0xbe, 0x1f, 0xf7, 0xad, 0xbd, 0xd5, 0xaf, 0x70, 0xbe, 0xdd, 0x1b, 0x26, 0xbe, 0x2d, 0x75, 0x56, 0xbe, 0xd1, 0x7b, 0x59, 0xbe, 0x5c, 0xcf, 0x2f, 0x3d, 0xac, 0xe9, 0x9e, 0xbe, 0x3e, 0xea, 0x7e, 0xbe, 0x9c, 0x2d, 0xc5, 0xbc, 0xa1, 0x88, 0x2b, 0xbd, 0xbc, 0xf1, 0x56, 0x3d, 0xd2, 0xa4, 0x17, 0xbe, 0x45, 0xd7, 0x54, 0xbd, 0xe6, 0xc9, 0x0a, 0xbd, 0x37, 0xa5, 0xec, 0xba, 0x2c, 0x8c, 0x1e, 0xbe, 0x37, 0x42, 0xa2, 0xbd, 0x91, 0x47, 0x5f, 0x3e, 0x73, 0x58, 0xd3, 0xbc, 0x51, 0xc5, 0x53, 0x3b, 0xeb, 0xe7, 0xe2, 0xbd, 0x74, 0xb9, 0x80, 0x3c, 0x71, 0xec, 0x61, 0xbe, 0x59, 0x74, 0x23, 0xbe, 0x98, 0x4f, 0xa6, 0xbd, 0x14, 0xc4, 0xcf, 0xbd, 0x3b, 0x5c, 0x77, 0x3d, 0xc1, 0x81, 0x4c, 0xbd, 0xa0, 0x73, 0x17, 0x3e, 0x41, 0x6f, 0xe0, 0x3d, 0x3a, 0x33, 0x38, 0x3d, 0x10, 0xb9, 0x19, 0xbc, 0x0f, 0x40, 0xa2, 0xbd, 0x06, 0x57, 0x0d, 0xbe, 0x28, 0x1c, 0xec, 0x3d, 0xdd, 0x3b, 0x8b, 0xbe, 0x63, 0x8e, 0x57, 0xbd, 0x7e, 0x5a, 0x08, 0xbe, 0x4d, 0x3e, 0x2b, 0x3c, 0x12, 0xb8, 0x51, 0xbb, 0xa8, 0x8e, 0x98, 0xbd, 0x93, 0x02, 0x69, 0x3d, 0x78, 0x2d, 0xa4, 0xbd, 0xe2, 0x36, 0xf6, 0xbd, 0x7c, 0xcb, 0xf7, 0x3d, 0xe2, 0x68, 0x23, 0xbe, 0xdd, 0xdb, 0x05, 0xbe, 0xb2, 0x55, 0x87, 0xbc, 0xa0, 0xd6, 0x15, 0xbd, 0x4d, 0x6f, 0x87, 0x3a, 0x31, 0x47, 0x60, 0x3d, 0xf2, 0xe1, 0x44, 0xbe, 0x71, 0x2d, 0xbf, 0x3d, 0xb2, 0x6e, 0x4a, 0x3e, 0xec, 0x32, 0x33, 0x3c, 0xc0, 0xe3, 0x73, 0x3e, 0xfe, 0x21, 0x84, 0xbe, 0xf5, 0xd2, 0x09, 0xbd, 0xd8, 0x90, 0x53, 0xbe, 0x6d, 0x48, 0xb5, 0x3d, 0x26, 0x3d, 0x3d, 0x3d, 0xa7, 0x98, 0x45, 0xbe, 0xa9, 0x8e, 0x75, 0x3d, 0x4f, 0xdf, 0xf0, 0x3c, 0x42, 0x5f, 0x69, 0xbe, 0x50, 0x39, 0x69, 0xbe, 0x9d, 0xfc, 0x75, 0xbe, 0x63, 0xc2, 0x93, 0xbd, 0x71, 0xf8, 0xdd, 0xbd, 0x48, 0xd7, 0x23, 0xbe, 0xa2, 0x67, 0x73, 0xba, 0xc4, 0x89, 0x33, 0xbe, 0x27, 0x7c, 0x09, 0xbe, 0x11, 0xd8, 0x1b, 0xbd, 0x33, 0xa7, 0x43, 0xbd, 0xf5, 0xd5, 0x44, 0xbd, 0x86, 0xb9, 0x37, 0xbe, 0x36, 0x87, 0x5a, 0x3b, 0x8c, 0xb8, 0xd5, 0xbd, 0xf4, 0x43, 0xd6, 0xbd, 0x52, 0x32, 0x0b, 0x3e, 0xda, 0xe0, 0x92, 0xbe, 0x3a, 0x6c, 0x67, 0x3b, 0x33, 0x90, 0xe2, 0x3b, 0x65, 0x24, 0xaf, 0xbc, 0xf8, 0xfc, 0x71, 0x3c, 0xb5, 0xd0, 0x76, 0x3d, 0x8f, 0x46, 0x16, 0xbe, 0xb7, 0x2a, 0xb0, 0xbe, 0xcc, 0x39, 0xd3, 0xbe, 0xd9, 0x0b, 0x6a, 0x3e, 0x9f, 0xf8, 0x20, 0x3e, 0x24, 0x22, 0x0b, 0xbb, 0x88, 0x91, 0xb8, 0xbd, 0x0a, 0x27, 0xc3, 0x3a, 0x75, 0x58, 0x38, 0x3e, 0xbe, 0x82, 0xc1, 0xbd, 0x6d, 0x8b, 0xca, 0x3c, 0x7e, 0x3e, 0xa8, 0x3c, 0xe5, 0x04, 0xe1, 0xbc, 0x25, 0xb6, 0xf3, 0xbb, 0x3f, 0xd1, 0x12, 0x3d, 0x13, 0xc9, 0xc6, 0xbd, 0xe9, 0xb8, 0x40, 0xbd, 0x71, 0xe5, 0x57, 0xbd, 0x8c, 0x61, 0xc3, 0x3b, 0x7e, 0x9e, 0x3d, 0xbd, 0x40, 0xd9, 0xbd, 0xbb, 0x7b, 0xef, 0xf1, 0xbc, 0x54, 0x49, 0x05, 0xbe, 0x55, 0x6a, 0x27, 0xbe, 0xeb, 0xc9, 0x01, 0xbe, 0xc2, 0xb2, 0x20, 0xbe, 0x8e, 0x85, 0x4a, 0x3e, 0x69, 0xeb, 0x89, 0xbe, 0x0c, 0x44, 0x17, 0xbe, 0xfe, 0xf7, 0x9e, 0xbd, 0xd3, 0x00, 0xd2, 0x3d, 0x05, 0x13, 0x2a, 0xbe, 0x7c, 0x7b, 0x0a, 0xbe, 0x9c, 0x40, 0x47, 0x3d, 0x33, 0x9d, 0x9d, 0x3d, 0xba, 0xd6, 0x5b, 0x3d, 0x85, 0x91, 0xb8, 0x3d, 0x3e, 0xda, 0x37, 0xbe, 0x45, 0xbf, 0x48, 0x3e, 0x05, 0x8d, 0xe2, 0x3d, 0xc6, 0x0d, 0x07, 0x3e, 0x34, 0xc0, 0x86, 0x3d, 0x69, 0xfc, 0x10, 0x3d, 0xe1, 0x2c, 0x17, 0x3d, 0xa4, 0xa3, 0x5e, 0x3b, 0x3e, 0xe0, 0x96, 0x3d, 0x3a, 0x3a, 0xde, 0x3c, 0x8c, 0xbd, 0xf5, 0x3d, 0x7c, 0x34, 0x32, 0x3e, 0x2e, 0xd6, 0x3e, 0xbd, 0x5c, 0x95, 0xd6, 0x3d, 0x7e, 0x64, 0x5e, 0xbd, 0x1d, 0x59, 0x25, 0x3e, 0x9a, 0x36, 0x92, 0x3e, 0xef, 0x19, 0x3a, 0x3e, 0x5e, 0x52, 0x9e, 0xbd, 0x3a, 0xed, 0x5b, 0x3e, 0xe5, 0xcd, 0x85, 0x3d, 0xa2, 0x8d, 0xfb, 0x3c, 0x82, 0xef, 0x16, 0x3d, 0xb6, 0xb5, 0xd1, 0x3d, 0x2c, 0x32, 0x1e, 0x3e, 0x3b, 0x72, 0x5d, 0x3e, 0x4e, 0x28, 0x7c, 0xbd, 0x12, 0x29, 0xb4, 0x3d, 0x95, 0x03, 0x06, 0x3d, 0x4e, 0x35, 0x7d, 0xbc, 0x12, 0x4a, 0x38, 0xbc, 0xd3, 0x26, 0x22, 0xbd, 0xd0, 0xff, 0x78, 0x3d, 0x04, 0xce, 0x39, 0xbd, 0xd1, 0xf1, 0x5c, 0x3d, 0xff, 0x56, 0x91, 0xbd, 0x60, 0x06, 0x91, 0x3d, 0x1b, 0x5e, 0xa5, 0x3d, 0x09, 0xbf, 0x65, 0xbe, 0xc6, 0x31, 0x61, 0x3a, 0xa7, 0xd6, 0xf9, 0xbd, 0xac, 0x53, 0x88, 0x3d, 0x34, 0x52, 0x55, 0xbd, 0x59, 0x06, 0x9b, 0xbd, 0x38, 0x64, 0x9e, 0x3d, 0x2f, 0xb9, 0xe0, 0x3d, 0x7f, 0xd7, 0xff, 0x3d, 0xb3, 0x13, 0x2e, 0x3d, 0x64, 0xf6, 0x26, 0xbe, 0xd8, 0xbc, 0xf7, 0x3d, 0x75, 0xc9, 0x65, 0xbd, 0xe6, 0x57, 0xae, 0xbd, 0x5f, 0x6c, 0x73, 0xbc, 0xed, 0x2a, 0x70, 0x3d, 0x61, 0xce, 0x48, 0xbd, 0xd6, 0xe5, 0x17, 0x3e, 0x6f, 0x2f, 0x2c, 0xbc, 0x9f, 0x58, 0xc4, 0x3c, 0x52, 0x49, 0x26, 0xbe, 0x20, 0x4a, 0x3c, 0xbe, 0x0a, 0x9c, 0x08, 0xbe, 0xdc, 0x2a, 0x03, 0x3d, 0xb8, 0xac, 0x6e, 0x3d, 0x2a, 0x76, 0xca, 0x3c, 0x9e, 0xe2, 0x0c, 0xbc, 0x2b, 0x6a, 0x98, 0x3e, 0xa6, 0x20, 0xbf, 0x3d, 0xb0, 0x92, 0xa4, 0x3d, 0xce, 0xf2, 0x97, 0xbc, 0x7b, 0xe0, 0xb1, 0x3d, 0x1b, 0xb0, 0xd3, 0xbd, 0xac, 0xcf, 0x19, 0x3d, 0x4e, 0x23, 0x52, 0x3d, 0x36, 0x1c, 0x9c, 0x3c, 0x4e, 0x87, 0x86, 0x3e, 0x2e, 0x43, 0x52, 0x3e, 0x14, 0xa6, 0xb0, 0xbc, 0xe3, 0x4f, 0xed, 0x3d, 0x09, 0xed, 0x87, 0x3d, 0xde, 0xfa, 0x24, 0x3e, 0xc3, 0x1f, 0xc8, 0x3d, 0xb3, 0x94, 0x4f, 0x3d, 0x11, 0xfd, 0xd4, 0x3c, 0x37, 0xfe, 0x70, 0x3e, 0x63, 0x8e, 0xdb, 0x3d, 0x16, 0xad, 0x9e, 0x3e, 0xef, 0x77, 0xb8, 0x3d, 0xc0, 0x6d, 0xdd, 0xbb, 0x40, 0xd5, 0x94, 0x3c, 0xd8, 0x3b, 0x35, 0x3e, 0x23, 0x6f, 0xc7, 0x3d, 0x6e, 0x6f, 0x35, 0x3e, 0xa7, 0x13, 0xe6, 0x3d, 0x6d, 0x59, 0x60, 0x3d, 0x07, 0xf6, 0x0f, 0xba, 0xf0, 0x85, 0x29, 0xbd, 0x79, 0xfd, 0xff, 0xbc, 0x17, 0xbc, 0x2d, 0x3c, 0xf4, 0x2b, 0x03, 0xbe, 0xbe, 0xfb, 0x0e, 0xbe, 0x23, 0x15, 0x94, 0x3d, 0x7e, 0x35, 0x5c, 0xbe, 0xf2, 0x93, 0x5e, 0xbe, 0xda, 0xcf, 0x9a, 0x3c, 0x99, 0x09, 0xe0, 0xbd, 0x4d, 0x97, 0x9c, 0x3d, 0x42, 0x62, 0xb1, 0xbb, 0x58, 0x9b, 0x73, 0x3d, 0xc6, 0x3c, 0xef, 0xbd, 0x62, 0x24, 0x9a, 0x3c, 0xc8, 0x81, 0xf0, 0xbb, 0xc3, 0xb8, 0x74, 0x3d, 0x3c, 0x8d, 0x63, 0xbe, 0x5a, 0x58, 0xe3, 0x3c, 0x5c, 0xec, 0x39, 0xbe, 0xb0, 0x89, 0xc1, 0x3d, 0xe6, 0x28, 0x68, 0x3c, 0xcc, 0x4a, 0x96, 0xbd, 0x61, 0xe7, 0xaa, 0xbd, 0x8d, 0xba, 0x13, 0x3c, 0xdb, 0xc0, 0xb8, 0xbd, 0xc8, 0x46, 0x5e, 0x3c, 0xb0, 0x64, 0x77, 0x3d, 0xb2, 0xaa, 0x22, 0x3d, 0xeb, 0x8c, 0x99, 0x3c, 0xdb, 0x7c, 0x5f, 0x3e, 0x18, 0x0e, 0x43, 0x3d, 0x7a, 0xea, 0xa0, 0x3d, 0xb5, 0x02, 0x24, 0x3e, 0xd7, 0x86, 0x28, 0xbe, 0xf1, 0x8e, 0xc2, 0x3d, 0x0e, 0x0e, 0x78, 0x3d, 0x60, 0xfc, 0x5c, 0x3e, 0x18, 0x12, 0x6d, 0x3e, 0xbf, 0x42, 0xd7, 0xbd, 0xa5, 0xce, 0x82, 0x3e, 0xf5, 0x59, 0xd3, 0xbc, 0xa0, 0x95, 0x41, 0x3e, 0xf4, 0x9e, 0x0e, 0x3e, 0x84, 0x2d, 0x3e, 0x3e, 0x50, 0x72, 0x9d, 0x3e, 0x75, 0x5e, 0x44, 0x3e, 0xad, 0x85, 0x73, 0x3d, 0x2a, 0x98, 0xe6, 0x3d, 0xf1, 0xe3, 0x10, 0xbe, 0x5a, 0xf1, 0xae, 0xbc, 0x92, 0x17, 0x3b, 0x3e, 0xe1, 0x7e, 0x56, 0xbd, 0x79, 0x9a, 0xe9, 0xbd, 0x18, 0xe5, 0x2a, 0xbe, 0x6b, 0xa0, 0xba, 0x3d, 0xe9, 0xe6, 0xa8, 0xbd, 0xf5, 0xed, 0x21, 0x3e, 0xd5, 0x97, 0x82, 0x3b, 0x1b, 0x9d, 0xa2, 0x3d, 0x54, 0x07, 0x7b, 0xbc, 0xfd, 0x20, 0x01, 0xbe, 0x6d, 0x0c, 0x0d, 0xbe, 0xb3, 0x48, 0x41, 0x3d, 0x1d, 0x11, 0xec, 0xbd, 0x28, 0x36, 0xb5, 0x3d, 0xcb, 0x77, 0xbc, 0xbd, 0x13, 0xb7, 0xbb, 0xbb, 0x49, 0x20, 0x4d, 0xbd, 0xcb, 0x51, 0x71, 0x3d, 0x13, 0x9f, 0xad, 0x3c, 0xf4, 0x16, 0x7d, 0xbd, 0xff, 0xb1, 0x70, 0x3c, 0x40, 0xef, 0x77, 0x3c, 0x5d, 0xf8, 0xdb, 0xbd, 0x93, 0x09, 0x10, 0xbe, 0x86, 0xa0, 0x12, 0x3e, 0x33, 0x6f, 0x07, 0xbe, 0xfa, 0xa6, 0x7e, 0x3b, 0x24, 0xd8, 0x14, 0x3e, 0xda, 0x6c, 0x0a, 0xbe, 0x32, 0xee, 0x78, 0x3c, 0x18, 0xdc, 0x25, 0xbd, 0x12, 0x82, 0x07, 0xbd, 0xae, 0x7a, 0x08, 0x3c, 0xe0, 0xcf, 0x31, 0x3c, 0xd0, 0xd8, 0xbf, 0x3d, 0x82, 0x8b, 0xa9, 0xbd, 0x5e, 0xc0, 0x19, 0xbe, 0xf1, 0xf9, 0xc1, 0x3c, 0xb2, 0x17, 0x38, 0x3e, 0xe4, 0xe7, 0xb0, 0xbd, 0xad, 0x2e, 0x9a, 0xbc, 0x11, 0xa9, 0xe9, 0x3d, 0xc1, 0x29, 0x98, 0x3e, 0x1c, 0xe9, 0x29, 0x3e, 0xca, 0xe9, 0x9f, 0x3d, 0xc1, 0x04, 0xd5, 0x3d, 0x29, 0xbd, 0x53, 0xbc, 0xb8, 0x9d, 0x37, 0x3e, 0xe7, 0x12, 0x70, 0xbd, 0xdd, 0x52, 0xe1, 0x3d, 0x07, 0xdb, 0x70, 0x3e, 0xdb, 0xaf, 0xaf, 0x3c, 0x95, 0x63, 0x87, 0x3d, 0x62, 0xa1, 0x7a, 0xbd, 0x87, 0x18, 0x6e, 0x3e, 0x7f, 0x10, 0xdf, 0xbd, 0x63, 0x76, 0x35, 0x3e, 0x45, 0x20, 0x9b, 0x3d, 0xf9, 0x6b, 0x99, 0x3d, 0xd8, 0xf1, 0x35, 0xbd, 0x8e, 0xbe, 0xe9, 0x3c, 0xed, 0x5e, 0x3e, 0x3c, 0x65, 0x01, 0x10, 0x3c, 0xc2, 0x03, 0xe9, 0x3b, 0xd1, 0x53, 0x10, 0x3e, 0x79, 0xdd, 0x0b, 0xbe, 0x77, 0xbe, 0x42, 0xbe, 0x37, 0x6b, 0x25, 0x3e, 0x5a, 0x08, 0x53, 0xbd, 0x15, 0xea, 0x7b, 0x3e, 0x76, 0x75, 0x25, 0x3c, 0x21, 0xec, 0x30, 0x3d, 0x28, 0xfc, 0x94, 0xbd, 0x40, 0xb1, 0xf7, 0xbc, 0x6a, 0xc4, 0x29, 0xbb, 0xc1, 0xf8, 0x4e, 0x3c, 0xb2, 0x21, 0x7a, 0x3d, 0x4f, 0x01, 0x03, 0x3c, 0x15, 0x71, 0x3b, 0xbd, 0xc4, 0x32, 0x25, 0x3d, 0xa5, 0x8e, 0x06, 0x3e, 0x85, 0x4a, 0x73, 0x3d, 0x8f, 0x1e, 0xb1, 0xbd, 0x69, 0xa1, 0xa7, 0xbd, 0x52, 0x04, 0xa8, 0xbd, 0xc6, 0x94, 0x85, 0xbd, 0x3f, 0x37, 0xbc, 0xbc, 0x98, 0x37, 0x9e, 0x3d, 0x68, 0xbc, 0x52, 0x3d, 0x1a, 0x9a, 0xf5, 0xbd, 0xcc, 0xa9, 0xe4, 0x3c, 0x94, 0xbb, 0xd3, 0xbd, 0xad, 0x55, 0x1d, 0xbc, 0x8d, 0x4c, 0x63, 0xbd, 0x3c, 0xc8, 0x3b, 0xbe, 0xc4, 0xb5, 0x93, 0xbd, 0x94, 0x81, 0xe5, 0xbd, 0xc1, 0xc2, 0x7b, 0x3d, 0xa8, 0x96, 0x90, 0x3c, 0x5f, 0xb4, 0x69, 0x3d, 0xda, 0x67, 0x91, 0xbd, 0x5f, 0x54, 0x50, 0xbd, 0xad, 0xac, 0x1b, 0x3c, 0xc1, 0xf7, 0x7b, 0x3d, 0xc8, 0x62, 0x42, 0x3d, 0x82, 0xfd, 0xcf, 0xbd, 0xd7, 0x67, 0x9a, 0xbe, 0x5d, 0xa0, 0x8e, 0xbe, 0x79, 0x19, 0x87, 0xbe, 0x3c, 0xd0, 0xf7, 0xbd, 0x11, 0xf6, 0x9c, 0x3d, 0x7c, 0x47, 0x41, 0x3c, 0x15, 0x17, 0x4c, 0xbe, 0xd3, 0x3e, 0x85, 0xbc, 0x05, 0xde, 0x65, 0x3c, 0x9b, 0xd4, 0xbd, 0xbd, 0x10, 0x9c, 0x2c, 0xbe, 0x2d, 0xb6, 0xad, 0xbd, 0x3e, 0x7e, 0x65, 0xbe, 0x60, 0x1e, 0x11, 0xbe, 0xeb, 0x6d, 0xa3, 0xbd, 0x9a, 0xcc, 0x51, 0xbe, 0xe3, 0x71, 0xa4, 0xbe, 0x3f, 0xb8, 0x97, 0x3c, 0x61, 0x0f, 0xbd, 0xbd, 0x0b, 0x96, 0x9b, 0x3d, 0x67, 0x77, 0x53, 0xbe, 0xa4, 0x2e, 0x1b, 0xbe, 0xcb, 0x45, 0x80, 0x3d, 0xbb, 0x67, 0x2d, 0xbe, 0x4b, 0x06, 0xc1, 0x3d, 0x16, 0xc3, 0x52, 0xbe, 0xf2, 0x87, 0x8f, 0x3d, 0xaf, 0x77, 0xe0, 0xbd, 0x20, 0xf6, 0xc7, 0x3d, 0x94, 0x7a, 0x89, 0xbe, 0x54, 0x3c, 0x58, 0x3b, 0xe0, 0x88, 0x8e, 0xbd, 0x16, 0xa8, 0xb8, 0xbd, 0x9e, 0xf8, 0x05, 0xbc, 0xdb, 0xbf, 0x63, 0xbe, 0xb8, 0x5d, 0x2d, 0xbd, 0xb3, 0xc0, 0x46, 0x3c, 0x99, 0x78, 0x91, 0xbd, 0x5e, 0x9b, 0x56, 0xbe, 0x6a, 0x50, 0x8f, 0xbc, 0x68, 0x45, 0x0d, 0xbe, 0x39, 0x26, 0x22, 0xbe, 0xca, 0x59, 0x6e, 0xbe, 0xed, 0x78, 0x45, 0x3d, 0x15, 0x11, 0x87, 0xbd, 0x7e, 0x69, 0xf8, 0xbd, 0xf6, 0xdf, 0x4d, 0xbe, 0x9b, 0x71, 0x0a, 0x3e, 0xb1, 0x94, 0x99, 0x3d, 0x92, 0x71, 0xb0, 0x3d, 0x7a, 0x0d, 0x3d, 0xbe, 0x60, 0xba, 0xb0, 0x3d, 0x49, 0x76, 0x04, 0x3e, 0xaa, 0x8b, 0x3f, 0x3e, 0xfe, 0x05, 0x2a, 0xbe, 0x43, 0x5f, 0x02, 0xbe, 0x4f, 0x5a, 0x05, 0xbe, 0x28, 0x7b, 0x76, 0xbd, 0x3a, 0x6e, 0x69, 0x3d, 0xee, 0x78, 0x80, 0x3d, 0x6e, 0xa7, 0x1d, 0x3c, 0xf6, 0x68, 0xec, 0x3d, 0x76, 0xa0, 0x3a, 0xbd, 0xdd, 0x4d, 0xee, 0xbc, 0xa7, 0x62, 0x5c, 0x3d, 0xa3, 0x2b, 0x82, 0xbe, 0x01, 0x4a, 0x91, 0xbd, 0xad, 0x01, 0x40, 0xbe, 0xdf, 0x08, 0x79, 0x3d, 0xb6, 0xeb, 0x8b, 0xbe, 0xea, 0xc1, 0x22, 0x3d, 0x65, 0xce, 0x30, 0xbe, 0x3e, 0xe4, 0xfc, 0xbd, 0xcb, 0xa8, 0x33, 0x3d, 0x50, 0xca, 0xe4, 0xbd, 0x37, 0x5d, 0x84, 0xbe, 0x59, 0x56, 0x7d, 0xbc, 0x38, 0xab, 0xec, 0x37, 0xf9, 0xa1, 0xeb, 0x3d, 0x8d, 0x7c, 0x42, 0xbe, 0x38, 0xf3, 0x47, 0xbd, 0x7d, 0x42, 0x87, 0x3d, 0xfb, 0x52, 0x8d, 0x3d, 0xa9, 0xa4, 0x3e, 0x3e, 0x34, 0x0f, 0x65, 0xbd, 0x62, 0xfe, 0x32, 0x3d, 0xf5, 0x50, 0x25, 0xbe, 0xa1, 0x0f, 0x6a, 0xbd, 0x73, 0x3b, 0xe1, 0x3d, 0x77, 0x8f, 0x6d, 0xbd, 0xba, 0xf7, 0x6c, 0xbe, 0xf7, 0x77, 0x2d, 0xbe, 0xac, 0xd9, 0x20, 0xbd, 0x6d, 0xdb, 0x0e, 0xbe, 0x8e, 0xd3, 0xfe, 0x3d, 0xeb, 0x32, 0xcc, 0xbc, 0x7e, 0xfe, 0x09, 0x3e, 0xef, 0x2a, 0x6b, 0x3e, 0x96, 0xc2, 0x9b, 0x3d, 0xb9, 0x3b, 0x63, 0xbe, 0x5e, 0x02, 0x5c, 0x38, 0x88, 0x95, 0xdb, 0xbd, 0x0d, 0xe4, 0x0a, 0xbd, 0x46, 0xcc, 0x16, 0x3d, 0xd0, 0xad, 0xdc, 0x3c, 0xb2, 0xa8, 0x1d, 0x3e, 0x15, 0xdb, 0xa5, 0xbd, 0x5f, 0x19, 0x1d, 0xbe, 0x45, 0x96, 0x45, 0xbe, 0x0d, 0xc8, 0x08, 0xbd, 0xa9, 0x8e, 0x91, 0xbb, 0x41, 0x9a, 0xc3, 0xbd, 0x68, 0x9e, 0x66, 0x3e, 0xd5, 0x6e, 0x4a, 0xbe, 0x6b, 0xd9, 0x41, 0xbd, 0xcb, 0xa3, 0xce, 0x3d, 0x56, 0xe0, 0x14, 0x3e, 0x49, 0xbb, 0xd3, 0xbc, 0x74, 0xa8, 0xa1, 0x3d, 0xab, 0x1a, 0xb3, 0xbd, 0x34, 0x25, 0x75, 0xbe, 0x3d, 0xd9, 0x15, 0x3c, 0x8f, 0xd8, 0x55, 0x3e, 0x0f, 0xd8, 0x90, 0xbe, 0x89, 0x7e, 0x29, 0xbe, 0x1e, 0x34, 0x13, 0xbe, 0x2f, 0x34, 0x9a, 0xbd, 0x47, 0x3e, 0xb3, 0xbd, 0x36, 0xd6, 0x65, 0xbe, 0x45, 0x11, 0x27, 0x3e, 0xb6, 0x47, 0x23, 0x3e, 0x04, 0x4f, 0x5e, 0xbc, 0xa5, 0x27, 0x5b, 0x3d, 0x52, 0x66, 0xe1, 0x3c, 0xf7, 0xa2, 0x53, 0x3e, 0x14, 0x30, 0xac, 0xbd, 0xdc, 0x66, 0x07, 0xbe, 0x4b, 0x19, 0x95, 0xbd, 0x08, 0x07, 0xb9, 0xbd, 0xf3, 0x7f, 0x54, 0x3d, 0x9c, 0x30, 0x45, 0xbd, 0xd6, 0x20, 0x7c, 0xbb, 0xed, 0x46, 0x01, 0xbd, 0xd6, 0x82, 0xb4, 0x3d, 0xb3, 0x21, 0xa8, 0xbd, 0xb0, 0x7a, 0x1a, 0xbc, 0xb8, 0x03, 0xcf, 0xbd, 0x36, 0xcd, 0xe7, 0xbc, 0xa3, 0x49, 0x1e, 0xbc, 0xc5, 0x75, 0x52, 0xbe, 0x49, 0xbd, 0xe5, 0xbc, 0xd7, 0xf3, 0x03, 0x3d, 0x5e, 0xdb, 0xc1, 0x3d, 0xae, 0xb3, 0xf4, 0xbd, 0xf5, 0x95, 0x53, 0xbc, 0x4f, 0x48, 0x03, 0x3e, 0x5e, 0x2a, 0xcd, 0xbc, 0xad, 0x78, 0x76, 0x3c, 0x68, 0x56, 0x03, 0x3a, 0x6d, 0x88, 0x89, 0xbd, 0xf2, 0xf1, 0xa5, 0xbd, 0x85, 0x28, 0x67, 0xbe, 0xf0, 0x33, 0x3e, 0x3d, 0xcf, 0x88, 0x58, 0xbd, 0x19, 0x10, 0xf7, 0xbd, 0xb8, 0x41, 0x10, 0xbe, 0x18, 0xd3, 0x70, 0xbd, 0x0b, 0x85, 0x3e, 0xbe, 0xc7, 0x21, 0x3f, 0xbe, 0x6e, 0x22, 0xbf, 0xbc, 0x8b, 0x48, 0x06, 0x3d, 0xb3, 0x25, 0xfd, 0xbd, 0xd8, 0x6b, 0xdc, 0xbd, 0x74, 0x31, 0x27, 0xbe, 0x09, 0x41, 0x45, 0xbe, 0x4f, 0x27, 0x98, 0xbe, 0x61, 0x06, 0xb3, 0xbd, 0x70, 0x17, 0x1b, 0x3b, 0x2f, 0x2c, 0x31, 0x3c, 0xa6, 0xf0, 0x99, 0xbc, 0x8e, 0x2b, 0xe3, 0xbd, 0x7d, 0x19, 0x88, 0xbd, 0xec, 0x8f, 0xfe, 0x3d, 0x53, 0x4c, 0x8e, 0x3a, 0xbe, 0xd8, 0xc5, 0xbd, 0xce, 0xe3, 0x40, 0xbd, 0xc5, 0x6a, 0xf9, 0xbd, 0x57, 0x5e, 0x02, 0xbe, 0x2f, 0xeb, 0xae, 0xbd, 0xf2, 0xae, 0x0f, 0xbe, 0xfb, 0xcb, 0x31, 0xbe, 0xf6, 0xaf, 0xa6, 0xbd, 0x50, 0xcd, 0x69, 0x3d, 0xcd, 0xf5, 0x3d, 0xbd, 0x15, 0x69, 0xed, 0x3d, 0xbf, 0xa5, 0xec, 0x3d, 0x41, 0x38, 0xbe, 0x3d, 0xc4, 0xe4, 0xb8, 0x3d, 0xa2, 0x0d, 0x05, 0xbe, 0x52, 0x0c, 0x83, 0x3d, 0xd3, 0x1c, 0x1f, 0xbe, 0x07, 0x64, 0xa0, 0x3c, 0xc4, 0x3a, 0xa5, 0xbe, 0xc1, 0xba, 0x95, 0x3a, 0x48, 0x1d, 0xc4, 0x3d, 0x85, 0x8f, 0x36, 0x3d, 0x56, 0x95, 0x27, 0xbe, 0x88, 0x60, 0x41, 0xbd, 0x88, 0x0e, 0x61, 0x3c, 0x9f, 0xba, 0x57, 0xbd, 0x75, 0x24, 0x33, 0xbe, 0x0e, 0x47, 0x6c, 0xbd, 0x6b, 0xef, 0x86, 0x3d, 0x3a, 0x5e, 0x88, 0xbc, 0xb6, 0x1d, 0x2c, 0x3d, 0x10, 0x2b, 0x08, 0xbd, 0xa5, 0x41, 0xe6, 0x3d, 0x0a, 0x31, 0x82, 0xbe, 0x0c, 0x40, 0xc2, 0x3d, 0xeb, 0xa6, 0x7b, 0x3e, 0xd8, 0xc1, 0x1e, 0x3d, 0x84, 0x18, 0x67, 0xbe, 0x1b, 0x35, 0x9b, 0xbd, 0x4b, 0xbd, 0xb3, 0x3d, 0xae, 0x68, 0x3b, 0xbd, 0x7a, 0x61, 0x8e, 0x3b, 0xda, 0x6c, 0x09, 0x3e, 0x15, 0x2b, 0x20, 0x3e, 0x22, 0xaa, 0x0b, 0xbe, 0x6e, 0x49, 0x08, 0x3e, 0x85, 0xa1, 0x32, 0x3e, 0xb0, 0x66, 0x8b, 0x3d, 0xe7, 0x6b, 0x9b, 0x3e, 0xa4, 0x2e, 0xe1, 0xbd, 0x4f, 0x1c, 0x68, 0x3d, 0x3d, 0x42, 0x1a, 0x3e, 0x56, 0x1f, 0x80, 0x3e, 0x57, 0x65, 0x14, 0x3e, 0xcf, 0xa1, 0x61, 0xbd, 0x03, 0x1e, 0x4c, 0xbe, 0xdd, 0x78, 0xe0, 0x3d, 0x04, 0x42, 0xc2, 0xbd, 0x39, 0x29, 0xa0, 0x3d, 0x50, 0x6a, 0x15, 0x3d, 0x79, 0x39, 0x10, 0x3e, 0xfc, 0x8a, 0x93, 0xbd, 0xa1, 0xb4, 0xef, 0xbb, 0x66, 0x45, 0xa0, 0xbc, 0x5a, 0x90, 0x86, 0x3c, 0xbf, 0x03, 0xd7, 0xbd, 0x6c, 0x2f, 0xab, 0x3d, 0x4b, 0xe3, 0xa3, 0xbe, 0x64, 0x82, 0x15, 0xbe, 0x36, 0xa3, 0x9d, 0xbd, 0x3e, 0xa5, 0x0c, 0xbe, 0x87, 0xe1, 0x2e, 0x3d, 0xd2, 0xa8, 0x0c, 0xbe, 0x2f, 0xcf, 0xe6, 0x3c, 0xad, 0x0d, 0x69, 0x3c, 0xed, 0xaf, 0x3d, 0x3e, 0xc1, 0x11, 0x14, 0x3c, 0x33, 0xdf, 0x43, 0x3e, 0x73, 0xd1, 0xc1, 0xbd, 0xd3, 0xef, 0x55, 0x3e, 0xec, 0x4c, 0x91, 0xbb, 0x13, 0xa6, 0x9c, 0xbd, 0x53, 0x3c, 0x1b, 0x3d, 0x79, 0x68, 0x4a, 0x3e, 0xf8, 0x0e, 0x63, 0xbd, 0x86, 0xc9, 0xa3, 0x3c, 0x7c, 0x38, 0x06, 0xbe, 0x43, 0xac, 0x12, 0x3d, 0x57, 0x9c, 0xfa, 0xbd, 0x4f, 0x14, 0xb5, 0xbd, 0xbf, 0x27, 0xf6, 0xbd, 0xae, 0xe0, 0xe2, 0xbd, 0xe3, 0xc5, 0x70, 0x3c, 0xb5, 0x0e, 0x85, 0xbc, 0x1e, 0xc4, 0xec, 0xbb, 0x7b, 0x48, 0xfb, 0x3c, 0x38, 0x59, 0x22, 0x3e, 0xa8, 0xe6, 0xdc, 0x3b, 0x72, 0xaa, 0x06, 0xbb, 0x60, 0x24, 0x21, 0xbc, 0xa1, 0x99, 0x02, 0x3e, 0x16, 0x60, 0x54, 0xbd, 0x2b, 0xb8, 0xfa, 0xbc, 0xf0, 0x68, 0xb4, 0x3c, 0x63, 0xe9, 0xd1, 0x3d, 0x4a, 0x29, 0x5b, 0x3e, 0x89, 0x9a, 0x9c, 0x3d, 0x77, 0x6a, 0x5d, 0x3d, 0xdd, 0x72, 0xc6, 0x3c, 0x83, 0xf5, 0xd4, 0xbd, 0xfa, 0x77, 0x2c, 0x3d, 0x77, 0x3f, 0x05, 0xbc, 0x7b, 0xef, 0x81, 0x3e, 0x62, 0x4d, 0x9c, 0x3d, 0x5a, 0x49, 0x02, 0xbe, 0xe7, 0x31, 0x8e, 0xbe, 0x35, 0x71, 0x7b, 0x3d, 0x1f, 0x73, 0x9f, 0xbd, 0xd1, 0x9f, 0xe7, 0x3c, 0xd8, 0xda, 0x7c, 0xbd, 0x1f, 0x13, 0xb9, 0x3d, 0xdd, 0x3f, 0xbd, 0xbe, 0x76, 0xd0, 0x86, 0x3d, 0x77, 0x75, 0x7f, 0xbe, 0x50, 0x0f, 0x21, 0xbe, 0xad, 0x6b, 0xb6, 0x3d, 0xb8, 0x9a, 0x7b, 0xbc, 0x94, 0x4d, 0x48, 0xbe, 0x59, 0xba, 0x72, 0xbe, 0x45, 0xe4, 0x50, 0x3d, 0xd7, 0x7e, 0x1c, 0xbe, 0x1e, 0xb1, 0xdd, 0x3d, 0x2e, 0x53, 0x9c, 0xbc, 0x54, 0xf6, 0x99, 0xbc, 0x98, 0x30, 0xe0, 0xbd, 0x78, 0xc4, 0xdb, 0xbd, 0x09, 0x91, 0x1e, 0xbd, 0xb3, 0xd9, 0x95, 0xbd, 0x0c, 0xb5, 0x56, 0x3d, 0xf1, 0xf2, 0x70, 0x3d, 0x1e, 0xf0, 0x17, 0xbe, 0xce, 0x6b, 0x07, 0x3e, 0xd2, 0x7e, 0x96, 0x3c, 0xf4, 0x58, 0xd7, 0x3c, 0x58, 0x6d, 0xd8, 0x3d, 0xeb, 0x69, 0xcb, 0xbd, 0x61, 0xfe, 0xc4, 0x3d, 0x56, 0xb1, 0x0d, 0x3e, 0x7b, 0xeb, 0x55, 0xbc, 0x4c, 0x22, 0xab, 0xbd, 0xa4, 0x4e, 0xe8, 0xbd, 0x05, 0x68, 0x84, 0x3d, 0x81, 0xfe, 0x68, 0x3d, 0xc1, 0xf6, 0x80, 0x3e, 0x58, 0xc0, 0xf4, 0xbd, 0x09, 0x73, 0xbd, 0xbc, 0xb9, 0x8a, 0xad, 0x3d, 0xec, 0x31, 0x59, 0x3d, 0x74, 0x40, 0xff, 0xbc, 0xbc, 0x36, 0x37, 0x3e, 0x28, 0x1e, 0x38, 0x3d, 0x69, 0x15, 0x65, 0x3c, 0xad, 0x43, 0xb4, 0xbd, 0x0a, 0x77, 0xcc, 0xbd, 0x8d, 0x38, 0x5b, 0xbd, 0xcf, 0x08, 0x0e, 0x3e, 0x37, 0xe1, 0x2e, 0x3e, 0x12, 0x37, 0xa3, 0xbd, 0x7c, 0x79, 0xfb, 0x3d, 0x83, 0x40, 0xd5, 0x3c, 0xda, 0x5b, 0x2e, 0x3e, 0xb0, 0x5f, 0x3e, 0x3e, 0x27, 0x4b, 0x58, 0xbe, 0x54, 0xb7, 0x9c, 0xbd, 0x75, 0xb8, 0x20, 0x3e, 0x5c, 0x76, 0x28, 0x3e, 0xed, 0xad, 0xb8, 0x3d, 0x47, 0x7c, 0xb2, 0x3b, 0x19, 0x97, 0xec, 0x3d, 0xb8, 0x90, 0x7f, 0xbe, 0x46, 0x90, 0x87, 0xbd, 0x1d, 0x54, 0xc7, 0xbd, 0xd1, 0x0b, 0x35, 0x3b, 0x7a, 0x85, 0x81, 0xbd, 0x59, 0xab, 0xac, 0x3d, 0x39, 0x32, 0x21, 0xbe, 0xe1, 0xda, 0xc3, 0xbd, 0x28, 0x36, 0xd6, 0xbd, 0xf2, 0x91, 0xb2, 0x3c, 0xb4, 0xd6, 0x78, 0x3e, 0x34, 0x93, 0x9e, 0x3c, 0x86, 0x07, 0x0a, 0xbe, 0xca, 0x75, 0x04, 0xbe, 0x57, 0x02, 0xb5, 0x3d, 0xf3, 0x82, 0x8a, 0xbd, 0x33, 0x55, 0xaf, 0xbd, 0x18, 0xd5, 0x1d, 0xbe, 0x81, 0xd8, 0x13, 0x3e, 0x65, 0x10, 0x31, 0xbe, 0x58, 0x95, 0x50, 0x3e, 0x5a, 0xb2, 0xbf, 0xbe, 0x5b, 0x4e, 0x95, 0xbe, 0xf2, 0x80, 0x09, 0x3e, 0xd6, 0xdc, 0x82, 0xbd, 0x57, 0x03, 0xb3, 0xbd, 0x46, 0xb5, 0xac, 0xbc, 0xdb, 0xea, 0x03, 0xbe, 0x60, 0xa7, 0x37, 0x3d, 0xa8, 0x5e, 0xaa, 0x3d, 0x1a, 0xac, 0xc7, 0xbe, 0x2d, 0x24, 0x83, 0xbd, 0xe0, 0x79, 0x63, 0xbe, 0x54, 0x03, 0x92, 0x3d, 0xa9, 0x1c, 0xa7, 0x3e, 0xa3, 0x6f, 0x82, 0xbd, 0x8c, 0x46, 0xab, 0x3d, 0xbd, 0xad, 0x04, 0x3d, 0x81, 0x66, 0xfd, 0x3d, 0x9f, 0xc6, 0x4e, 0x3e, 0xaf, 0xb5, 0xbe, 0x3c, 0xbe, 0xf6, 0x7e, 0x3e, 0x59, 0x01, 0xd7, 0xbc, 0xf5, 0x0d, 0x45, 0x3d, 0xa0, 0xce, 0x47, 0x3e, 0x1f, 0x0f, 0x5f, 0xbe, 0xb0, 0x92, 0x99, 0x3d, 0x70, 0x36, 0x36, 0xbe, 0x57, 0xea, 0x9d, 0x3d, 0xa4, 0x74, 0x33, 0xbe, 0xd9, 0x7e, 0x06, 0x3d, 0x0c, 0x0d, 0xcb, 0xbd, 0xca, 0xf3, 0xb0, 0xbd, 0x3a, 0xaa, 0xcc, 0xbe, 0x9c, 0xe4, 0x4e, 0xbc, 0x31, 0xa7, 0xc3, 0xbd, 0x65, 0xaf, 0x4b, 0xbe, 0xc2, 0x80, 0xd0, 0xbc, 0xef, 0x47, 0x01, 0x3d, 0x59, 0xfd, 0xcc, 0x3d, 0x9f, 0x67, 0x6e, 0xbd, 0x1c, 0xc0, 0xb2, 0xbe, 0x30, 0xec, 0x61, 0xbe, 0x76, 0x32, 0x5d, 0xbe, 0xec, 0x24, 0xd3, 0xbd, 0x41, 0xaa, 0xd2, 0xbd, 0x3b, 0x1d, 0x9b, 0x3d, 0xab, 0x7e, 0x98, 0xbd, 0xd8, 0x08, 0x3a, 0x3d, 0x8c, 0x34, 0x0d, 0xbd, 0x3c, 0xcd, 0x47, 0xbd, 0xa5, 0xd0, 0x21, 0xbd, 0x30, 0x0d, 0xea, 0xbd, 0xc9, 0x54, 0x16, 0x3e, 0x6f, 0x26, 0x87, 0xbe, 0xf4, 0xbf, 0x10, 0xbe, 0x1c, 0xd6, 0x0f, 0xbe, 0x9e, 0x1b, 0x55, 0xbe, 0x82, 0x3e, 0xf1, 0xbd, 0x4b, 0xb6, 0xab, 0x3d, 0xfb, 0x7d, 0x45, 0xbd, 0x48, 0x40, 0x2f, 0xbe, 0x21, 0xec, 0x00, 0x3e, 0xf8, 0x6e, 0x44, 0x3e, 0xd8, 0xf4, 0x51, 0xbe, 0xc8, 0x11, 0x71, 0x3d, 0x98, 0x0f, 0x14, 0x3e, 0x7a, 0x0f, 0x5e, 0xbd, 0xe5, 0x21, 0x7d, 0xbd, 0x02, 0x2c, 0x19, 0xbe, 0xc5, 0x41, 0x5a, 0xbe, 0x98, 0xc3, 0x23, 0x3e, 0x9e, 0x31, 0x8b, 0x3b, 0x29, 0x72, 0x5a, 0x3c, 0x6d, 0x3e, 0x67, 0x3d, 0x88, 0xa9, 0x5d, 0xbd, 0xc2, 0x18, 0x28, 0xbe, 0x33, 0x02, 0x6f, 0xbe, 0x9a, 0x20, 0x9e, 0xbe, 0x02, 0x1a, 0x90, 0xbd, 0xfd, 0x91, 0x5e, 0xbb, 0xfa, 0xa2, 0x06, 0x3e, 0xcf, 0x70, 0xad, 0xbd, 0xdd, 0x3c, 0x10, 0x3d, 0xa5, 0x10, 0x85, 0xbe, 0x66, 0x75, 0x8c, 0xbe, 0xb1, 0x6e, 0x5c, 0x3d, 0x41, 0xfa, 0x80, 0xbd, 0x39, 0x39, 0x9e, 0xbe, 0x26, 0x13, 0xd9, 0xbc, 0x5b, 0x3c, 0xf2, 0x3c, 0x1b, 0x86, 0x5f, 0xbe, 0x2e, 0x0b, 0x08, 0x3d, 0xff, 0xac, 0x61, 0x3d, 0xc0, 0x29, 0x4d, 0xbe, 0x01, 0xb4, 0x1f, 0xbe, 0x12, 0x32, 0x25, 0x3d, 0xf8, 0xeb, 0x15, 0x3d, 0x90, 0x92, 0x15, 0xbd, 0xec, 0x54, 0x20, 0x3d, 0xf0, 0x71, 0x9c, 0xbc, 0xa9, 0xef, 0x6e, 0x3d, 0x65, 0x3e, 0x1d, 0x3d, 0xc4, 0x79, 0xa7, 0x3d, 0x45, 0x9e, 0xce, 0x3c, 0x3f, 0x05, 0x9d, 0xbd, 0xae, 0xec, 0x05, 0x3d, 0x4e, 0x16, 0x90, 0x3d, 0xb3, 0x3f, 0x1f, 0xbe, 0xcc, 0x5f, 0x6a, 0xbe, 0xc3, 0xbb, 0x4d, 0xbc, 0xfe, 0xb3, 0x34, 0x3d, 0x4d, 0x9b, 0xd3, 0x3c, 0xb6, 0x2e, 0x6a, 0x39, 0x2c, 0x01, 0x19, 0xbe, 0xea, 0x98, 0x84, 0xbd, 0x27, 0x90, 0x87, 0xbd, 0x46, 0x3b, 0x39, 0x3c, 0xf9, 0x51, 0x43, 0xbd, 0xfb, 0x1a, 0x31, 0xbe, 0x9c, 0xcb, 0x50, 0x3d, 0x20, 0xf2, 0x70, 0xbe, 0xe2, 0xbd, 0xb1, 0xbd, 0x38, 0x3c, 0x7d, 0x3b, 0x0e, 0xb8, 0xf7, 0x3c, 0xfc, 0x6a, 0xf8, 0xbc, 0x5b, 0xd7, 0xb6, 0x3d, 0x76, 0x9c, 0x17, 0xbe, 0x91, 0x9c, 0xd3, 0x3d, 0x4d, 0x09, 0xb8, 0xbe, 0x6b, 0xfc, 0x0b, 0x3e, 0x3c, 0x7a, 0x4a, 0x3e, 0x2e, 0x8b, 0x7d, 0x3e, 0x36, 0x53, 0x11, 0x3e, 0x8a, 0x4e, 0xca, 0xbe, 0xf6, 0x5f, 0x4b, 0xbd, 0x89, 0xa9, 0x03, 0xbe, 0xe1, 0xf5, 0x8b, 0x3e, 0xb6, 0xff, 0xe4, 0x3d, 0x0b, 0x5a, 0x2e, 0x3d, 0x4a, 0xd0, 0xb2, 0x3d, 0xec, 0xd1, 0x4b, 0xbe, 0x13, 0x22, 0x01, 0xbe, 0x27, 0x41, 0x50, 0x3d, 0xc2, 0x23, 0x11, 0xbd, 0x6e, 0xed, 0x33, 0xbe, 0x81, 0xca, 0x63, 0xbc, 0xc0, 0x0a, 0x50, 0x3e, 0x49, 0x7d, 0xc7, 0xbe, 0x7e, 0xb4, 0x09, 0x3e, 0xb2, 0xb9, 0x30, 0xbe, 0x7f, 0xbc, 0x99, 0x3d, 0xce, 0x36, 0x2b, 0xbe, 0x2e, 0x56, 0xb8, 0xbe, 0x3d, 0xd4, 0xe7, 0x3c, 0xa7, 0x68, 0xdf, 0x3c, 0xb2, 0x8e, 0x47, 0xbe, 0x37, 0xef, 0x4a, 0xbc, 0xe1, 0x0c, 0x95, 0xbc, 0xff, 0x09, 0x82, 0x3c, 0x23, 0xdc, 0x1c, 0xbe, 0x68, 0x0b, 0xff, 0xbd, 0xe0, 0xac, 0x31, 0x3e, 0xa4, 0x4b, 0x48, 0xbe, 0x48, 0x0e, 0xb1, 0xbd, 0xbd, 0xf7, 0x5f, 0x3d, 0x91, 0x2f, 0x9e, 0x3d, 0x2c, 0x63, 0x33, 0x3d, 0xc9, 0x8a, 0x54, 0xbe, 0x02, 0x49, 0x4d, 0x3b, 0xf9, 0x0f, 0x89, 0xbd, 0x02, 0xe1, 0x75, 0x3d, 0x7f, 0x9f, 0xc8, 0x3c, 0x12, 0xc0, 0xf5, 0xbd, 0xe9, 0xf2, 0x39, 0xbd, 0x3a, 0x39, 0xed, 0xbd, 0x09, 0xc9, 0x81, 0xbd, 0x2a, 0xbf, 0xe6, 0x3c, 0x1a, 0x9c, 0x6c, 0xbe, 0xa2, 0xfe, 0xfa, 0xbd, 0x72, 0x48, 0x17, 0x3e, 0xe4, 0xc4, 0x87, 0xbe, 0x56, 0x42, 0xe8, 0xbd, 0xe0, 0x31, 0x33, 0x3e, 0xe3, 0x47, 0x38, 0xba, 0xb6, 0xfb, 0x09, 0x3e, 0x55, 0x31, 0x5f, 0xbe, 0xf9, 0x23, 0x4b, 0x3d, 0xb0, 0x19, 0xaa, 0x3d, 0x35, 0xfa, 0x1e, 0xbc, 0xe0, 0x90, 0x28, 0xbe, 0x18, 0xe1, 0x97, 0xbc, 0x56, 0xf4, 0xba, 0x3d, 0xb4, 0x19, 0x6b, 0x3e, 0x79, 0x7a, 0x19, 0xbd, 0xa3, 0xad, 0x24, 0x3c, 0x50, 0x1e, 0x5d, 0xbc, 0x63, 0xe7, 0x15, 0x3e, 0x06, 0x8f, 0x84, 0xbe, 0x34, 0x56, 0xdf, 0xbc, 0xb4, 0x0b, 0x0a, 0xbe, 0xf5, 0xeb, 0x78, 0xbd, 0x47, 0x72, 0xd3, 0xbd, 0xdc, 0x88, 0xe4, 0x3d, 0x58, 0xf1, 0x13, 0xbc, 0x0a, 0xb6, 0xaa, 0x3c, 0x35, 0xa1, 0xa3, 0xbe, 0x5e, 0x56, 0x53, 0xbd, 0xfa, 0x68, 0x65, 0xbe, 0x84, 0x88, 0xdc, 0xbc, 0x80, 0x4e, 0x64, 0xbc, 0x27, 0x98, 0x89, 0xbd, 0xc3, 0xe4, 0x13, 0xbe, 0xe5, 0x2c, 0xb1, 0xbd, 0x03, 0x12, 0x9d, 0xbd, 0x63, 0x8f, 0x60, 0xbe, 0x7f, 0x05, 0x46, 0xbe, 0xd1, 0x89, 0x00, 0xbe, 0xe9, 0xb9, 0x07, 0xbe, 0xd0, 0x03, 0x1a, 0xbd, 0xe1, 0xd0, 0x70, 0xbe, 0x86, 0xda, 0x15, 0x3e, 0x9e, 0x1d, 0x8f, 0xbd, 0x41, 0x47, 0x0c, 0x3e, 0x88, 0x81, 0x36, 0xbd, 0xd1, 0xbd, 0x37, 0xbe, 0xaf, 0x8c, 0x90, 0x3d, 0x62, 0xa8, 0xf0, 0xbd, 0x0e, 0xd0, 0xdc, 0xbc, 0x1c, 0xc0, 0xf9, 0xbd, 0x61, 0x20, 0xbc, 0xbd, 0x6e, 0x6d, 0x04, 0x3e, 0x6a, 0x77, 0x9b, 0x3d, 0xbd, 0xab, 0x52, 0xbc, 0x7f, 0x0d, 0x68, 0x3d, 0xc7, 0x97, 0xdd, 0x3d, 0x93, 0xa5, 0x35, 0x3e, 0xcc, 0x0f, 0xe4, 0xba, 0xf3, 0x0f, 0x38, 0x3e, 0x50, 0xc4, 0x06, 0xbe, 0xeb, 0xd2, 0x97, 0x3d, 0x6c, 0xa0, 0x0d, 0x3e, 0xe8, 0x3e, 0x78, 0x3d, 0x0f, 0xef, 0xee, 0x3d, 0xc0, 0xb5, 0x5e, 0xbe, 0xb7, 0x37, 0x07, 0xbe, 0x95, 0xc3, 0x14, 0xbe, 0x1c, 0xfa, 0x8f, 0x3d, 0x6b, 0x4f, 0x26, 0x3e, 0x09, 0xda, 0x80, 0xbd, 0xf5, 0x89, 0x06, 0x3e, 0xf7, 0x3e, 0x83, 0x3e, 0x23, 0xb7, 0xb1, 0xbd, 0xc5, 0x68, 0x41, 0x3e, 0xb5, 0x06, 0xfa, 0xbd, 0xe5, 0x78, 0x27, 0xbd, 0x6e, 0x72, 0x88, 0xbd, 0xb0, 0xac, 0x3d, 0xbe, 0xdc, 0xd7, 0x4e, 0xbe, 0xdd, 0xdc, 0x38, 0xbe, 0xe3, 0x4f, 0x2a, 0xbd, 0x1a, 0xde, 0xe6, 0xbd, 0xc4, 0x8c, 0x7c, 0xbe, 0x45, 0x61, 0x26, 0xbe, 0xea, 0xb8, 0xe8, 0x3c, 0xe7, 0xda, 0xf1, 0xbd, 0xb9, 0x04, 0x6d, 0x3d, 0x96, 0x2c, 0x0b, 0xbd, 0xbd, 0x28, 0x6f, 0xbe, 0x9a, 0xa4, 0xaa, 0x3d, 0x9a, 0x3a, 0xa8, 0x3d, 0x90, 0x50, 0x72, 0xbc, 0x25, 0x26, 0x2c, 0xbe, 0x8c, 0x99, 0xa9, 0xbd, 0xa9, 0x96, 0x0c, 0x3b, 0x08, 0xb0, 0x36, 0xbe, 0x2a, 0xf9, 0xcc, 0xbd, 0xe6, 0x7f, 0x2a, 0x3e, 0x03, 0x66, 0x06, 0x3e, 0x4c, 0xd6, 0x95, 0xbd, 0x09, 0xff, 0xc0, 0x3d, 0xc6, 0xd2, 0x49, 0xbc, 0x65, 0x8b, 0x06, 0xbe, 0x57, 0x77, 0x54, 0x3d, 0xe5, 0x51, 0xcb, 0xbd, 0x53, 0x47, 0xaa, 0xbb, 0x69, 0xa6, 0x62, 0xbd, 0x33, 0xb1, 0x8c, 0xbc, 0x75, 0x88, 0x20, 0xbd, 0x1b, 0x5e, 0xc0, 0x3d, 0x52, 0x07, 0x46, 0xbd, 0x11, 0xfe, 0xa0, 0xbd, 0x26, 0x21, 0xa3, 0xbd, 0xac, 0x50, 0x5c, 0x3d, 0xcf, 0x59, 0x07, 0xbe, 0x7a, 0x38, 0x78, 0x3d, 0x7e, 0x47, 0xa3, 0x3b, 0x18, 0x18, 0xd8, 0xbb, 0xb0, 0x7f, 0xb0, 0xbc, 0x0a, 0x1b, 0x68, 0xbe, 0x2d, 0x5f, 0xa1, 0xbe, 0xdc, 0x58, 0x3b, 0x3d, 0x28, 0x7d, 0x05, 0xbe, 0x46, 0xc9, 0x37, 0xbd, 0xf0, 0xd5, 0x1c, 0x3d, 0x6f, 0xe9, 0x07, 0x3d, 0xb2, 0xa9, 0x92, 0xbc, 0x6c, 0xf7, 0x7f, 0x3b, 0x25, 0xdd, 0x8b, 0xbd, 0xeb, 0x46, 0x5a, 0xbe, 0xa2, 0xde, 0x47, 0xbc, 0x84, 0x08, 0xc2, 0xbc, 0x94, 0xc6, 0x57, 0xbd, 0xaf, 0x58, 0x38, 0xbe, 0x05, 0xca, 0x64, 0xbc, 0xac, 0xe5, 0xac, 0x3d, 0x8a, 0x47, 0xca, 0xbd, 0x18, 0xc6, 0x0f, 0x3c, 0x78, 0xb0, 0xb2, 0x3d, 0xdf, 0xe3, 0x17, 0xbe, 0x89, 0xbd, 0x7a, 0x3c, 0x49, 0x2c, 0xcd, 0xbc, 0xff, 0xbb, 0x71, 0xbd, 0x1e, 0x4d, 0xf8, 0x3c, 0x6e, 0x7c, 0x8e, 0xbd, 0x96, 0x73, 0xd0, 0xbc, 0xf2, 0x41, 0x22, 0xbe, 0xa5, 0x3d, 0x00, 0xbe, 0xb4, 0xad, 0x21, 0xbd, 0x56, 0x20, 0x12, 0xbe, 0x46, 0x90, 0xf8, 0xbd, 0x2f, 0xaa, 0x46, 0xbd, 0x58, 0x82, 0x63, 0x3d, 0xe5, 0x2d, 0x13, 0xbe, 0xbf, 0xe1, 0x23, 0x3d, 0xac, 0x6c, 0xce, 0x3d, 0x61, 0xe3, 0x3c, 0xbe, 0x78, 0x1c, 0x39, 0xbe, 0x72, 0x3d, 0x8b, 0xbd, 0x58, 0x79, 0xf3, 0xbc, 0xe6, 0xe6, 0x4e, 0x3d, 0x77, 0x80, 0xaf, 0xbd, 0xf2, 0xe7, 0x78, 0xbe, 0x2f, 0xbd, 0xfb, 0x3b, 0x81, 0x37, 0xe0, 0x3d, 0x01, 0xf3, 0x18, 0xbe, 0x63, 0xe1, 0x15, 0x3e, 0x37, 0x32, 0x85, 0xbd, 0x1d, 0x9c, 0x29, 0xbe, 0x19, 0x03, 0x98, 0xbd, 0x60, 0x44, 0x03, 0x3e, 0x44, 0xc2, 0x7d, 0xbd, 0x34, 0x34, 0xe1, 0x3c, 0xe0, 0x54, 0x15, 0x3e, 0xf1, 0x67, 0x7e, 0xbd, 0x19, 0x64, 0xf0, 0xbc, 0xf9, 0xe0, 0x81, 0xbe, 0x35, 0x45, 0x63, 0x3d, 0xa2, 0xe5, 0xa6, 0x3d, 0x84, 0x6e, 0xae, 0xbd, 0x7c, 0x0d, 0xdd, 0x3c, 0xaa, 0xf1, 0xad, 0x3d, 0x59, 0xa5, 0x3d, 0xbe, 0x67, 0xf3, 0x8e, 0xbc, 0x69, 0xad, 0x5e, 0xbe, 0xde, 0x1a, 0x20, 0xbe, 0x38, 0xca, 0x10, 0xbc, 0x85, 0x2a, 0xbd, 0xbd, 0x75, 0xaf, 0x9f, 0xbd, 0x46, 0xd4, 0x2e, 0x3d, 0xc5, 0x3f, 0x0c, 0xbd, 0xdd, 0x35, 0xd4, 0xbd, 0x0c, 0x1b, 0x4f, 0xbd, 0x99, 0x8a, 0x70, 0xbe, 0x53, 0xcf, 0x0d, 0xbe, 0x57, 0xec, 0x49, 0xbe, 0x88, 0x3f, 0x6e, 0x3d, 0xfc, 0xe5, 0x2a, 0x3b, 0x18, 0x07, 0x87, 0xbd, 0x0e, 0x29, 0x1f, 0xbc, 0xc0, 0x80, 0x43, 0x3c, 0x64, 0xa9, 0x06, 0x3e, 0x7e, 0xb5, 0x60, 0xbe, 0x95, 0xbc, 0x67, 0xbd, 0x0f, 0x94, 0xa7, 0x3d, 0xd5, 0xc0, 0x20, 0xbd, 0xf7, 0xdd, 0x33, 0xbe, 0x8d, 0xd6, 0xbe, 0xbd, 0xda, 0xdc, 0xf8, 0xbd, 0x04, 0x81, 0x77, 0x3c, 0xb3, 0xca, 0x27, 0x3e, 0xbf, 0x47, 0x1a, 0xbd, 0xa2, 0x52, 0xb1, 0x3c, 0x57, 0x45, 0xeb, 0xbd, 0xcb, 0xe4, 0x0d, 0xbe, 0xf4, 0xf5, 0x75, 0xbe, 0x5a, 0x8e, 0x4a, 0x3d, 0xb2, 0xc1, 0x81, 0xbe, 0x85, 0x08, 0xda, 0xbd, 0xce, 0xb3, 0xcc, 0xbd, 0xa5, 0x8f, 0xae, 0xbb, 0x6e, 0xc2, 0xbd, 0xbc, 0x96, 0xbc, 0x3e, 0xbe, 0xe9, 0x4b, 0x89, 0xbc, 0x48, 0x61, 0x26, 0xbd, 0xc9, 0xf9, 0x42, 0xbc, 0xb5, 0x6f, 0x16, 0xbe, 0xeb, 0xf5, 0x5b, 0xbd, 0xac, 0x2e, 0xfd, 0xbc, 0xc1, 0xb4, 0x0a, 0x3c, 0x23, 0xae, 0x49, 0xbe, 0x40, 0x6e, 0xdf, 0x3d, 0xed, 0x69, 0x22, 0x3b, 0x20, 0xb4, 0x18, 0xbe, 0x48, 0x18, 0x41, 0xbc, 0x04, 0x73, 0x7a, 0xbe, 0xae, 0x64, 0x9c, 0x3c, 0x49, 0x4f, 0x8d, 0x3d, 0x38, 0xbc, 0x7b, 0xbd, 0xac, 0x5d, 0x0d, 0x3b, 0x8e, 0x90, 0xc1, 0xbd, 0x97, 0xf8, 0xc7, 0x3d, 0x58, 0x4b, 0x92, 0x3d, 0xbc, 0x01, 0x0b, 0xbe, 0xa4, 0xe3, 0x32, 0xbe, 0xc4, 0x09, 0x19, 0xbe, 0x34, 0x18, 0x04, 0xbe, 0x6f, 0x4d, 0xbf, 0x3d, 0xdd, 0x19, 0x55, 0x3d, 0x6c, 0x49, 0xfb, 0xbd, 0x84, 0x4e, 0x0b, 0xbe, 0xf7, 0x7a, 0x1f, 0xbe, 0x18, 0x0c, 0x13, 0x3d, 0x54, 0xd4, 0x38, 0x3b, 0x51, 0xbc, 0x62, 0xbe, 0x41, 0xc6, 0xfb, 0xbd, 0xe4, 0x24, 0x94, 0xbd, 0xcc, 0x0f, 0x26, 0xbe, 0xba, 0xf5, 0x95, 0x3c, 0x3c, 0x16, 0x0c, 0x3d, 0x17, 0xaa, 0xa0, 0xbb, 0x69, 0x4d, 0xf6, 0xbd, 0x4d, 0x81, 0x15, 0xbd, 0xe2, 0x55, 0xf2, 0x3d, 0x6b, 0x59, 0xb1, 0x3d, 0xee, 0x6c, 0x7c, 0x3d, 0x99, 0x28, 0xc2, 0x3d, 0x5d, 0x89, 0xf8, 0xbd, 0xc2, 0xa8, 0xa5, 0xba, 0x1a, 0x87, 0x3d, 0xbd, 0xa8, 0x44, 0x2b, 0xbc, 0x39, 0x77, 0x91, 0xbd, 0x02, 0x4d, 0xb3, 0xbd, 0x4d, 0xd2, 0x98, 0xbe, 0x03, 0x40, 0x92, 0xbe, 0x61, 0x66, 0x20, 0xbe, 0x25, 0xe4, 0x90, 0xbe, 0xe8, 0x6e, 0x0b, 0xbe, 0x7c, 0x0d, 0xf7, 0xbc, 0xc4, 0x87, 0x4e, 0xbd, 0x61, 0xaa, 0x4d, 0xbe, 0x96, 0x67, 0x64, 0xbe, 0x94, 0x13, 0xa7, 0x3b, 0x86, 0x41, 0xee, 0xbd, 0x7b, 0xc4, 0xd5, 0xbd, 0x3d, 0xac, 0x3d, 0xbe, 0x33, 0x3b, 0xeb, 0x3c, 0xef, 0xee, 0x00, 0xbe, 0xe3, 0xdc, 0x76, 0xbd, 0xe5, 0x65, 0x8f, 0x3d, 0x33, 0xa2, 0x21, 0xbd, 0xc6, 0x26, 0x71, 0xbe, 0x00, 0xe6, 0xc7, 0xbd, 0xbe, 0xb4, 0xed, 0xbd, 0x98, 0xe1, 0xb6, 0xbc, 0xb3, 0x4c, 0x82, 0xbe, 0xf3, 0x08, 0xf4, 0xbd, 0xcd, 0x88, 0x48, 0xbe, 0x2d, 0x4a, 0x5f, 0xbd, 0x5a, 0x1f, 0xe8, 0x3c, 0x5c, 0x61, 0x8e, 0xbe, 0xcc, 0x49, 0xd8, 0x3c, 0x6f, 0x97, 0xac, 0x3d, 0xcf, 0x00, 0xcc, 0xbd, 0x5a, 0x60, 0x8f, 0xbc, 0xd5, 0xfe, 0x7a, 0xbe, 0x47, 0x0f, 0x09, 0xbe, 0xee, 0xf5, 0x23, 0xbd, 0xf9, 0x2b, 0x2c, 0xbe, 0x3f, 0xab, 0x01, 0x3e, 0x16, 0xe9, 0x47, 0x3c, 0xd3, 0xb6, 0xd6, 0xbd, 0x2e, 0x60, 0x46, 0xbd, 0x71, 0x0e, 0x55, 0xbe, 0xd2, 0xcf, 0x33, 0xbe, 0x3f, 0x45, 0x96, 0x3d, 0xe7, 0x81, 0x8b, 0xbe, 0xc1, 0x12, 0x26, 0xbe, 0x37, 0x4d, 0x08, 0x3d, 0x2f, 0xa1, 0x03, 0xbd, 0xf4, 0x1f, 0x03, 0xbe, 0x4a, 0x04, 0x8d, 0xbe, 0x60, 0x07, 0x13, 0xbe, 0x3a, 0x44, 0x12, 0xbe, 0xce, 0xfe, 0x08, 0xbe, 0xed, 0x2d, 0xf1, 0xbd, 0x65, 0xa5, 0x8a, 0xbd, 0xb7, 0xbf, 0x6b, 0x3b, 0x30, 0xe8, 0x79, 0xbe, 0x78, 0xae, 0x07, 0xbe, 0xbc, 0x8f, 0x3c, 0xbd, 0x4e, 0x80, 0xe3, 0xbc, 0x01, 0x9a, 0x84, 0xbc, 0x04, 0xf9, 0x7d, 0x3c, 0xbb, 0x1c, 0x05, 0xbe, 0x0d, 0xaf, 0x6a, 0xbd, 0x75, 0x91, 0x0e, 0xbe, 0xe5, 0xb4, 0x11, 0xbb, 0x05, 0x51, 0x75, 0x3d, 0xe5, 0xc5, 0x5f, 0xbe, 0x8d, 0x0b, 0x10, 0xbd, 0x76, 0x9d, 0xb9, 0xbe, 0xdd, 0x1d, 0xfd, 0x3c, 0xff, 0x10, 0x80, 0xbe, 0xe5, 0xd6, 0xc1, 0x3d, 0xec, 0xf3, 0x6c, 0xbe, 0xf5, 0xd0, 0xdb, 0xbd, 0x8f, 0xec, 0x26, 0xbe, 0x99, 0x48, 0x11, 0xbe, 0x74, 0x89, 0x68, 0xbe, 0x17, 0xb3, 0xc2, 0x3c, 0xbf, 0x08, 0x3a, 0x3d, 0xd7, 0x6b, 0x63, 0x3e, 0x45, 0xb9, 0x5e, 0xbd, 0xf1, 0x37, 0x9b, 0xbd, 0xc8, 0x06, 0x29, 0xbe, 0x35, 0xc2, 0x8a, 0xbd, 0x50, 0x30, 0x47, 0x3e, 0xd0, 0x94, 0x1b, 0xbe, 0xb2, 0xd8, 0xd4, 0xbc, 0x27, 0x8c, 0x85, 0x3d, 0x06, 0x06, 0x19, 0x3e, 0x56, 0x11, 0x0f, 0xbc, 0x7b, 0x99, 0x77, 0x3c, 0x1c, 0x83, 0x91, 0xbe, 0x69, 0x85, 0xd1, 0xbd, 0x83, 0xc0, 0x48, 0x3d, 0x94, 0x50, 0x85, 0xbd, 0x47, 0x8d, 0xc0, 0x3d, 0x13, 0x00, 0x70, 0x3d, 0xb6, 0x43, 0xc6, 0x3d, 0xf8, 0x1c, 0x21, 0xbe, 0x1f, 0xdc, 0xcc, 0x3d, 0x86, 0x2f, 0x16, 0xbd, 0xf9, 0x41, 0x7d, 0xbe, 0x70, 0x42, 0xb5, 0x3b, 0x7d, 0x47, 0xa7, 0x3d, 0xef, 0x03, 0x7c, 0x3a, 0xa3, 0x39, 0xbd, 0xbd, 0x69, 0x34, 0x16, 0xbe, 0x98, 0xe5, 0x6c, 0x3e, 0xb0, 0xa1, 0x96, 0x3d, 0x4e, 0x4a, 0x8d, 0xbe, 0x3a, 0x74, 0x24, 0xbd, 0x63, 0xb8, 0x94, 0xbb, 0x43, 0x00, 0x34, 0xbe, 0xc6, 0x58, 0xd4, 0x3d, 0xf4, 0x53, 0xc6, 0xbd, 0x6c, 0xaf, 0xde, 0xbd, 0x82, 0x8d, 0x60, 0xbd, 0x11, 0x8d, 0x4c, 0xbe, 0xf6, 0x43, 0x25, 0x3d, 0x80, 0x6f, 0x4e, 0x3e, 0x01, 0x5c, 0xa5, 0xbe, 0xfe, 0xc7, 0xc2, 0xbd, 0xa6, 0x48, 0x7c, 0xbc, 0xa1, 0xc6, 0x29, 0x3c, 0x51, 0xb8, 0x13, 0xbe, 0x51, 0x84, 0x04, 0xbd, 0x1c, 0x7b, 0x23, 0x3d, 0xe5, 0xd5, 0x02, 0xbe, 0x3d, 0x4f, 0xcf, 0xbd, 0xe0, 0xcb, 0xef, 0xbd, 0x8a, 0x2d, 0xb8, 0x3d, 0x46, 0xd8, 0x44, 0xbd, 0x21, 0x8e, 0xa0, 0xbc, 0x9b, 0x48, 0x11, 0x3d, 0x2d, 0x03, 0xfc, 0x3d, 0xca, 0xff, 0x8d, 0x3d, 0xb6, 0x4b, 0x52, 0xbd, 0xa1, 0x2a, 0x60, 0x3d, 0x8b, 0x72, 0xcb, 0x3b, 0x48, 0xbd, 0x46, 0x3d, 0xa3, 0x96, 0xda, 0xbd, 0x6a, 0x65, 0x38, 0xbd, 0xeb, 0x5e, 0xc6, 0xbd, 0x9d, 0x2b, 0x20, 0xbe, 0x4d, 0xed, 0xfa, 0xbc, 0xbf, 0x0a, 0x1c, 0xbe, 0xaf, 0xff, 0x84, 0xbd, 0xab, 0x96, 0xe3, 0xb9, 0xf8, 0xf9, 0x48, 0xbe, 0xfc, 0x3a, 0xe3, 0xbc, 0x3b, 0xb5, 0xb6, 0x3d, 0x33, 0x9a, 0x32, 0xbe, 0x1f, 0xdf, 0xd6, 0x3b, 0xd7, 0x68, 0x43, 0xbb, 0x65, 0xed, 0x2e, 0xbd, 0x6b, 0x51, 0x25, 0xbe, 0x22, 0xb9, 0xa3, 0xbb, 0xa5, 0x97, 0x93, 0xbd, 0x52, 0x05, 0x03, 0xbe, 0x94, 0xd1, 0x97, 0xbe, 0xe9, 0x54, 0xaa, 0xbc, 0x65, 0xc7, 0xef, 0xbc, 0xc2, 0xc3, 0xd5, 0xbd, 0x1a, 0xc9, 0xa0, 0xbd, 0x39, 0x54, 0xca, 0xbd, 0x30, 0x31, 0xc0, 0xbd, 0x87, 0x40, 0x98, 0x3c, 0x84, 0x2e, 0x20, 0xbc, 0xb6, 0x65, 0x63, 0xbe, 0x49, 0x8d, 0x71, 0xbd, 0x33, 0x94, 0x43, 0xbe, 0x47, 0xc7, 0x8e, 0x3c, 0x96, 0x5c, 0x65, 0xbc, 0x8f, 0x9b, 0xed, 0xbc, 0x99, 0x19, 0x70, 0xbe, 0xf0, 0xd9, 0xe2, 0x3d, 0x5e, 0x9f, 0xa4, 0xbd, 0x71, 0x60, 0x24, 0xbe, 0xa4, 0x9a, 0x62, 0x3d, 0x18, 0xdc, 0x9f, 0x3d, 0x45, 0x37, 0x3b, 0xbe, 0x63, 0xee, 0xda, 0xbd, 0xd5, 0x0c, 0x07, 0x3e, 0x9d, 0xf4, 0xda, 0xbd, 0x6c, 0xc7, 0x02, 0xbe, 0xc4, 0xfc, 0xcf, 0xbd, 0xf5, 0x93, 0x73, 0xbd, 0x5a, 0xc6, 0x1f, 0x3d, 0xac, 0x33, 0x03, 0xbd, 0xd0, 0x20, 0x59, 0xbe, 0x3e, 0x3f, 0x68, 0x3c, 0x38, 0xdb, 0x61, 0xbe, 0xea, 0xe8, 0xad, 0xbc, 0x8d, 0x08, 0xd8, 0xbd, 0x6e, 0xb3, 0x6d, 0xbe, 0x7b, 0x9b, 0xe3, 0xbd, 0xed, 0x93, 0xa2, 0xbe, 0x8d, 0x69, 0x3d, 0xbd, 0x70, 0x1a, 0xb9, 0xbe, 0xf1, 0x20, 0x40, 0x3c, 0x5a, 0x0b, 0xa8, 0xbd, 0x34, 0xe6, 0xcb, 0x3d, 0x46, 0x45, 0xad, 0xbe, 0xe7, 0xf3, 0x3c, 0xbe, 0x5f, 0x42, 0x63, 0xbe, 0xee, 0x60, 0xf8, 0xbd, 0x9d, 0xe1, 0xd7, 0xbd, 0xd9, 0xa7, 0x7a, 0xbe, 0x9f, 0xc7, 0x33, 0x3c, 0xf2, 0xe1, 0x80, 0x3e, 0x75, 0x91, 0x15, 0xbd, 0x15, 0x27, 0x0e, 0x3d, 0xef, 0x3c, 0x2d, 0xbe, 0x9a, 0xf8, 0x27, 0x3d, 0xf5, 0x51, 0xe2, 0xbc, 0x87, 0x43, 0x02, 0xbe, 0xdc, 0xa3, 0xed, 0xbc, 0xcb, 0xd0, 0xa6, 0x3d, 0x4e, 0x43, 0x29, 0x3e, 0xb3, 0x98, 0x55, 0xba, 0x79, 0x8a, 0x94, 0x3c, 0x1c, 0x32, 0x14, 0xbd, 0x25, 0x8b, 0xfb, 0xbd, 0xf8, 0xdb, 0xbf, 0x3d, 0x28, 0xa4, 0x81, 0xbc, 0xdf, 0x25, 0xf7, 0xbd, 0xdc, 0xe2, 0x11, 0xbb, 0x73, 0x2d, 0x66, 0x3d, 0xe7, 0x39, 0x8a, 0x3e, 0x28, 0x03, 0xef, 0x3d, 0x82, 0x90, 0x86, 0x3c, 0x3b, 0x83, 0x37, 0x3d, 0x59, 0x7d, 0xd0, 0x3d, 0x76, 0x8d, 0xcc, 0xbd, 0x42, 0x51, 0xf9, 0x3d, 0xa8, 0x78, 0x21, 0x3e, 0xda, 0xab, 0xf8, 0x3d, 0x3f, 0xbb, 0x80, 0xbd, 0xda, 0xfe, 0x76, 0xbd, 0x4b, 0x78, 0xc2, 0xbd, 0x3e, 0xd3, 0xc6, 0xbd, 0x81, 0x05, 0xb6, 0x3d, 0x0e, 0x75, 0xa3, 0x3d, 0x96, 0xae, 0x8d, 0xbd, 0xd1, 0xa9, 0x5c, 0xbe, 0xd4, 0x3e, 0xc0, 0x3c, 0x8d, 0xb4, 0xda, 0xbc, 0x7a, 0xb7, 0x04, 0x3c, 0x05, 0x96, 0x56, 0xbe, 0xb7, 0x1c, 0xbe, 0xbd, 0xf7, 0x84, 0xaa, 0xbd, 0x91, 0x7d, 0xfc, 0x3d, 0x32, 0x56, 0x5d, 0xbd, 0x09, 0xe7, 0x92, 0xbd, 0x18, 0xda, 0x27, 0xbe, 0xef, 0x71, 0x4f, 0x3d, 0x76, 0xda, 0x0a, 0xbe, 0x13, 0x92, 0x4c, 0x3d, 0x12, 0x66, 0x25, 0x3d, 0xa4, 0x57, 0x03, 0x3d, 0x14, 0x54, 0x6d, 0x3e, 0x3c, 0xd7, 0x10, 0x3e, 0x7b, 0xb6, 0x0c, 0xbd, 0xb3, 0xa6, 0x59, 0x3e, 0xc1, 0x46, 0x31, 0xbe, 0x5e, 0xdf, 0xc5, 0xbd, 0xb3, 0x96, 0x2f, 0x3d, 0xa5, 0x93, 0x94, 0xbe, 0x48, 0x7b, 0x39, 0xbe, 0x56, 0xb1, 0xc4, 0x3b, 0x5a, 0x89, 0xe5, 0x3d, 0x9e, 0x3a, 0xfe, 0x3d, 0x57, 0x18, 0x73, 0x3d, 0x1e, 0x00, 0x3d, 0x3d, 0xe9, 0x45, 0x05, 0xbe, 0xa1, 0x84, 0x9a, 0xbd, 0xc2, 0x59, 0xe9, 0x3b, 0x25, 0x67, 0x74, 0xbd, 0xf4, 0xd8, 0x0c, 0x3c, 0xdf, 0xf4, 0xb4, 0xbd, 0x6c, 0x61, 0xe7, 0xbd, 0xb0, 0x1e, 0x23, 0xbe, 0x33, 0x2d, 0xe2, 0xbd, 0x9f, 0x3b, 0x38, 0xbe, 0x90, 0x06, 0x91, 0xbe, 0x5b, 0xfa, 0x92, 0xbd, 0x18, 0x16, 0x36, 0x3e, 0x0b, 0x13, 0xbb, 0xbd, 0x69, 0xd9, 0x25, 0x3d, 0x4f, 0x4e, 0xe8, 0xbc, 0x42, 0xd6, 0xcd, 0x3a, 0xf3, 0x21, 0xb8, 0xbe, 0xee, 0xf7, 0xe3, 0x3d, 0x79, 0x01, 0x80, 0x3e, 0x06, 0xc0, 0xb4, 0x3d, 0x9e, 0x00, 0x88, 0x3b, 0xa0, 0x45, 0xa3, 0xbe, 0x83, 0x10, 0x41, 0xbd, 0x0c, 0xb8, 0xcb, 0xbd, 0xcc, 0xff, 0x02, 0xbb, 0x22, 0x4b, 0x50, 0x3d, 0x89, 0xf3, 0x2c, 0xbe, 0xf8, 0xa1, 0x62, 0xbc, 0xdf, 0x89, 0x95, 0x3c, 0x8b, 0xb6, 0x1c, 0xbe, 0x41, 0x5d, 0xf7, 0xbd, 0x82, 0xe3, 0xa7, 0xbd, 0xbe, 0x67, 0xb4, 0xbe, 0x7d, 0xe1, 0x40, 0xbe, 0xba, 0x9f, 0x19, 0xbe, 0x24, 0x98, 0x74, 0xbe, 0xcc, 0x2e, 0xf4, 0xbd, 0xe3, 0x99, 0x85, 0x3d, 0xc9, 0xfa, 0x36, 0x3d, 0xb4, 0x3e, 0x83, 0xbd, 0xae, 0x1e, 0x0a, 0xbe, 0x19, 0xd1, 0x13, 0xbe, 0x74, 0x2b, 0xe7, 0xb9, 0x09, 0x8a, 0xc1, 0xbc, 0x73, 0x45, 0x2d, 0xbe, 0xda, 0x2f, 0x8b, 0xbe, 0x25, 0x6a, 0x02, 0xbe, 0x77, 0x28, 0x43, 0xbe, 0xea, 0xad, 0x23, 0xbe, 0x0e, 0x8f, 0x29, 0xbd, 0xb6, 0xb5, 0xed, 0xbd, 0x02, 0x26, 0x0e, 0xbe, 0x98, 0xca, 0x86, 0x3c, 0x19, 0x3a, 0x1b, 0xbd, 0x81, 0x5b, 0xe2, 0xbb, 0xcd, 0x00, 0x99, 0xbe, 0x66, 0x5e, 0x69, 0xbd, 0x04, 0x2f, 0x30, 0x3d, 0xb5, 0xb7, 0x63, 0xbe, 0xb7, 0x54, 0x18, 0xbe, 0x85, 0xa3, 0x8f, 0xbe, 0xbb, 0x0b, 0x13, 0xbe, 0xfb, 0xb3, 0x84, 0xbc, 0x3b, 0xd4, 0x9c, 0x3d, 0xab, 0x4e, 0x5e, 0x3e, 0x7d, 0x2f, 0xb8, 0xbe, 0x76, 0x79, 0x19, 0xbe, 0xaa, 0x96, 0x1f, 0x3e, 0x45, 0x8b, 0x16, 0xbe, 0x5f, 0x06, 0xb4, 0xbe, 0x67, 0x15, 0xbf, 0xbc, 0xca, 0xe4, 0xa7, 0xbe, 0xcb, 0x50, 0x8c, 0x3d, 0x13, 0x00, 0x35, 0x3d, 0xde, 0x38, 0x38, 0xbe, 0xaf, 0x8f, 0x09, 0xbe, 0x2e, 0x2a, 0x91, 0xbd, 0x3b, 0xb1, 0x39, 0xbc, 0x81, 0xa8, 0x2d, 0xbe, 0xb0, 0x6b, 0x11, 0xbd, 0xf9, 0x4e, 0x5e, 0xbe, 0x33, 0xf4, 0x85, 0xbe, 0x91, 0x6c, 0xfa, 0x3d, 0xaf, 0xeb, 0x94, 0xbd, 0x3b, 0x54, 0x8e, 0xbd, 0x44, 0x1e, 0x30, 0xbe, 0x05, 0xf7, 0x9c, 0x3d, 0x2c, 0x66, 0xac, 0x3b, 0xd2, 0x33, 0x1d, 0xbe, 0xcf, 0xd3, 0x85, 0xbe, 0x78, 0x29, 0x46, 0xbe, 0x47, 0xaf, 0xfe, 0x3c, 0xdb, 0x74, 0xd4, 0xbd, 0xed, 0xd5, 0x2b, 0x3d, 0x52, 0xff, 0x87, 0x3d, 0x47, 0xe9, 0x1c, 0x3e, 0xfc, 0x35, 0x60, 0x3d, 0x26, 0x34, 0xa2, 0x3d, 0xa4, 0xf0, 0x15, 0xbb, 0xeb, 0x66, 0xc8, 0x3d, 0xfb, 0x5d, 0x58, 0xbd, 0x55, 0x6d, 0x21, 0x3c, 0xcc, 0xff, 0x30, 0x3c, 0xe0, 0xb4, 0x8a, 0x3d, 0x96, 0xee, 0xe7, 0x3b, 0x06, 0x21, 0xc6, 0x3d, 0xf0, 0x22, 0x79, 0xbd, 0x1b, 0x83, 0xcd, 0xbd, 0x84, 0xe3, 0xfc, 0xbd, 0xc0, 0x6d, 0x03, 0x3d, 0x26, 0x16, 0xce, 0x3d, 0x11, 0x71, 0xde, 0xbd, 0xf0, 0x04, 0x19, 0xbe, 0xed, 0x5d, 0x0f, 0x3e, 0xeb, 0x8a, 0xfe, 0xbd, 0xe0, 0x36, 0x2f, 0x3d, 0x37, 0xa7, 0xff, 0xbd, 0x57, 0xfa, 0x12, 0x3b, 0x81, 0x9b, 0x41, 0xbd, 0xf6, 0x33, 0xac, 0xbc, 0x5a, 0x0c, 0xf4, 0xbd, 0x2a, 0x82, 0xf0, 0xbd, 0x49, 0x1f, 0x53, 0xbe, 0x90, 0x49, 0x9b, 0x3d, 0x79, 0xa0, 0xea, 0xbd, 0x8d, 0xb5, 0x5f, 0x3d, 0xdd, 0xc5, 0x45, 0xbd, 0x43, 0x54, 0x87, 0x3e, 0xa0, 0x65, 0x43, 0xba, 0x97, 0x55, 0x90, 0xbe, 0x98, 0x59, 0x1c, 0xbc, 0x5d, 0xf2, 0xa2, 0x3a, 0xcd, 0xd3, 0x12, 0xbe, 0xb6, 0xbf, 0x8f, 0x3d, 0x59, 0x3d, 0x3b, 0xbd, 0x3a, 0xc3, 0x92, 0xbe, 0xe2, 0x6d, 0x82, 0x3d, 0x4c, 0x3b, 0x47, 0x3e, 0x42, 0xc1, 0xf1, 0xbe, 0x38, 0x9f, 0x23, 0xbe, 0x1d, 0xf5, 0x1f, 0xbe, 0x4c, 0x53, 0x88, 0xbe, 0x36, 0x7f, 0x16, 0xbd, 0x43, 0x17, 0xff, 0xbd, 0x06, 0x54, 0x5a, 0xbe, 0x05, 0x9a, 0x37, 0xbe, 0x52, 0x9e, 0x75, 0xbe, 0x3a, 0x24, 0xb9, 0xbc, 0x7e, 0x2a, 0x2c, 0xbc, 0x73, 0xe8, 0x1b, 0xbe, 0xf2, 0x4f, 0x2d, 0x3d, 0xd2, 0x57, 0x77, 0xbe, 0x90, 0x5d, 0xd9, 0xbd, 0xf1, 0xad, 0xfc, 0xbd, 0x6b, 0xc1, 0x0f, 0xbe, 0xf8, 0x72, 0xb7, 0xbd, 0x46, 0x4c, 0x6c, 0x3b, 0xd5, 0xe7, 0x11, 0xbd, 0x89, 0x56, 0xee, 0x3d, 0x09, 0xfa, 0x13, 0x3e, 0x41, 0xf8, 0x0e, 0x3d, 0x91, 0x82, 0xf0, 0xbd, 0x56, 0x67, 0x4e, 0xbe, 0xeb, 0xa1, 0xe1, 0xbc, 0x3b, 0x0d, 0x25, 0xbe, 0xb5, 0x21, 0x9e, 0xbe, 0x22, 0x81, 0x79, 0xbe, 0xb7, 0xd3, 0x5b, 0xbe, 0x38, 0x48, 0xa5, 0xbc, 0x0d, 0x96, 0xa3, 0xbd, 0x3a, 0xc2, 0xf1, 0x3c, 0x1a, 0x76, 0xd3, 0x3d, 0x11, 0x4d, 0x37, 0x3d, 0xe6, 0xcd, 0xc9, 0x3d, 0x37, 0x8d, 0x7d, 0x3e, 0xf9, 0x57, 0x47, 0xbd, 0x7d, 0xf8, 0x55, 0xbe, 0x8d, 0x09, 0x15, 0xbd, 0x2e, 0x9a, 0x5c, 0x3c, 0xd6, 0xba, 0x93, 0xbd, 0xb5, 0x4f, 0x11, 0x3e, 0x35, 0x96, 0xad, 0xbb, 0x6e, 0xb9, 0x84, 0x3d, 0xe9, 0x5f, 0xf3, 0x3d, 0x99, 0x24, 0x3e, 0x3d, 0x96, 0x64, 0xc9, 0xbd, 0xea, 0x3a, 0xa2, 0x3e, 0x35, 0xe0, 0x33, 0x3d, 0xed, 0x98, 0x2b, 0x3e, 0xd1, 0x26, 0x3e, 0x3e, 0xa0, 0xcf, 0x6e, 0xbd, 0xf3, 0x75, 0xc4, 0x3d, 0x6a, 0x04, 0x30, 0x3e, 0xdc, 0xa0, 0x6d, 0x3e, 0x8f, 0xbc, 0x44, 0xbd, 0xf8, 0x14, 0x3d, 0x3e, 0xa2, 0xa0, 0xb7, 0xbc, 0x6a, 0xda, 0x48, 0x3e, 0xed, 0x1b, 0x9c, 0x3c, 0x5d, 0x2f, 0x23, 0x3e, 0x48, 0xb5, 0x91, 0xbd, 0xf4, 0x17, 0x41, 0x3e, 0x3d, 0xf4, 0x5e, 0x3c, 0x18, 0xed, 0x0c, 0x3e, 0x91, 0x96, 0xb0, 0x3d, 0xfa, 0x61, 0xc3, 0x3c, 0x72, 0xc5, 0x3e, 0x3c, 0x60, 0xfa, 0xfa, 0x3d, 0x86, 0x7f, 0x19, 0x3e, 0x9f, 0x2c, 0x45, 0x3e, 0x02, 0x2f, 0xe2, 0x3b, 0xb8, 0x11, 0x21, 0x3e, 0x17, 0x45, 0xb9, 0xbd, 0x09, 0xfc, 0xc4, 0x3d, 0xc1, 0xf1, 0xa0, 0xbd, 0x5a, 0xe0, 0x59, 0xbd, 0xc2, 0x92, 0x87, 0x3e, 0x91, 0x5b, 0x2b, 0xbd, 0xe1, 0x7f, 0x94, 0x3d, 0x2e, 0xe4, 0xd8, 0x3b, 0x72, 0x1d, 0x04, 0x3e, 0x59, 0x4a, 0x16, 0xbe, 0xf4, 0xdd, 0xf0, 0xb9, 0x61, 0x0e, 0xa2, 0xbd, 0x66, 0x01, 0x5c, 0xbd, 0x48, 0x0f, 0x2f, 0xbc, 0xd8, 0x5a, 0xba, 0x3c, 0xee, 0x88, 0x22, 0x3e, 0x92, 0x71, 0xcf, 0x3d, 0x7a, 0x66, 0x20, 0xbc, 0x61, 0x92, 0x39, 0x3d, 0x37, 0x0f, 0x38, 0xbd, 0x1e, 0x33, 0xe7, 0x3d, 0xa6, 0x14, 0x58, 0x3c, 0x21, 0xef, 0x93, 0xbd, 0xaa, 0xd1, 0xcb, 0xbd, 0xb9, 0x0c, 0x29, 0xbe, 0xb3, 0xf3, 0xd6, 0x3d, 0xf4, 0x96, 0xe0, 0x3d, 0x72, 0x7b, 0xc2, 0x3d, 0x30, 0x80, 0x03, 0xbe, 0xb7, 0xdc, 0x2b, 0xbd, 0x29, 0x02, 0xe4, 0xbd, 0x44, 0x57, 0x58, 0x3b, 0x2f, 0x1a, 0x58, 0x3e, 0x58, 0xad, 0x5b, 0xbc, 0xfd, 0x8a, 0x61, 0x3e, 0x80, 0x11, 0xf7, 0x3d, 0x4a, 0xd1, 0x6c, 0x3d, 0xa7, 0xe9, 0x96, 0xbd, 0xe7, 0x81, 0xeb, 0x3d, 0xb2, 0x91, 0xd0, 0xbd, 0x79, 0x56, 0x0d, 0x3e, 0x98, 0x62, 0xda, 0x3d, 0x42, 0xab, 0xec, 0xbd, 0x9e, 0x9d, 0x26, 